00
02
fc
fd
fe
01
00
04
00
01
ff
ff
f9
fb
00
02
02
03
fd
fe
02
04
ff
03
ff
00
04
fc
fd
ff
fe
04
fa
f9
f5
f3
f5
fb
f8
f1
ec
ef
fb
d1
d1
d7
f8
f3
ef
f1
f1
f7
02
01
03
fd
01
fc
fa
d9
db
fe
f5
f6
f3
eb
ec
ef
e5
e4
db
d7
cd
e6
f4
e7
ef
e8
f0
ea
f8
02
03
fb
01
ff
03
d8
dd
e6
ea
e8
c7
c8
d0
d2
ac
a8
9e
8d
a6
c5
e5
f6
ee
ef
ee
19
05
05
ed
03
fd
04
0c
07
e7
f1
ef
db
d6
cf
cf
ca
c3
c2
b6
b3
bb
dd
f2
03
f9
fa
08
2d
0e
fb
f1
db
04
03
f5
ff
d9
0e
06
f1
f0
ef
df
02
0d
ff
ee
e0
df
eb
f0
ee
ed
ee
fe
ff
0f
14
dc
ed
fc
e1
ff
14
fe
18
0b
fd
f6
01
06
0a
10
03
07
0c
0d
13
07
fd
01
18
1a
24
0b
26
fc
e5
ff
de
0b
27
ee
ed
ea
dc
fc
07
02
10
11
11
07
0e
0b
01
02
12
13
18
16
27
25
11
fc
de
d4
eb
08
fe
ed
fe
f9
02
20
10
12
12
08
06
11
0a
f8
f4
00
07
0e
11
17
17
21
24
21
f0
fc
f4
f3
eb
e3
f8
03
07
0b
0a
0c
0c
0b
0a
06
04
f5
fc
fb
02
11
19
18
13
18
0f
26
23
fd
06
ec
dc
f8
00
02
09
13
11
09
04
0b
f2
fb
f0
f6
f1
07
07
08
0b
0c
05
02
16
ff
19
1e
e7
05
e7
fc
11
1a
26
1c
1c
13
11
0b
eb
f2
ec
fb
0d
15
06
13
0b
04
01
01
10
0f
ea
1d
18
2a
ec
15
13
14
16
0e
0a
09
06
ec
e3
e5
f8
08
0f
14
05
0e
24
11
32
07
00
f1
eb
ee
13
21
ed
13
08
0c
23
09
07
06
f6
ef
f7
fc
0e
14
14
0d
0e
18
28
24
1c
e0
f2
df
fa
ed
0b
fd
0d
16
08
08
14
03
01
08
0b
ff
04
0d
0a
0e
14
08
17
14
fd
f7
f1
d7
f0
d1
fe
f2
fb
e3
2e
1b
f3
fc
f4
f9
fb
00
00
fe
05
08
0d
10
11
03
f6
f7
ea
00
01
cc
cf
eb
fd
13
fa
f5
12
01
f3
f7
f6
fb
02
fa
fb
03
0e
0e
0a
0b
09
eb
d4
ed
eb
fb
f7
ec
ea
fd
f7
fc
01
fa
08
d8
d8
e0
f1
fa
fe
ff
08
09
0d
06
00
fe
e9
dc
cc
dc
e7
f1
df
d6
f8
f8
fa
06
fe
f3
ff
c6
da
e0
eb
e8
ef
fc
08
02
12
11
f5
f1
e4
e1
cc
db
f4
ed
d0
ce
f5
0b
e7
00
dc
e3
d8
ca
c7
d7
eb
f7
f2
f7
f5
08
15
08
fa
f5
f4
e2
d5
de
e7
e3
db
da
e0
fd
e9
fc
f9
e2
c8
bd
d2
d2
df
03
fd
02
fd
04
fe
fb
fd
fb
ec
e6
e0
da
e6
e8
e3
ef
f7
f5
ff
03
02
de
cb
d1
e7
e5
ed
06
0b
07
02
00
fa
f8
fc
f2
f0
ef
e1
e5
f1
df
df
f2
e3
d7
01
01
ff
f6
da
f6
fc
fa
fa
05
fb
03
fd
05
06
09
f1
f8
ee
f3
ef
e9
e3
dc
f4
ef
e5
cd
fd
fd
04
dc
c7
e2
f4
f7
00
00
eb
f6
fd
02
08
01
05
06
fd
08
f7
ed
f8
08
0c
03
f5
ca
ff
ff
01
0a
dd
16
1b
0a
0e
0e
f4
04
0c
fb
01
03
0f
09
fb
02
08
03
00
fe
04
e8
ef
f6
01
fe
02
04
f6
22
18
fb
fe
fc
06
15
13
00
04
1f
10
10
12
18
f8
03
00
e5
f9
f4
01
f9
fc
03
fe
ff
0f
25
20
2d
3a
43
3d
24
02
ff
15
38
1e
2b
2d
24
07
11
16
01
27
0c
02
00
01
fe
03
fe
fd
e8
ea
14
23
1f
1c
2d
23
1e
1b
3a
3c
1b
16
37
38
26
0f
13
fe
fc
03
00
00
fd
fe
ff
fc
00
01
00
01
04
01
fe
fe
fc
fc
01
02
02
fe
04
fd
00
04
05
fd
01
01
fe
fe
01
fd
01
02
fb
ff
f8
fb
fd
f8
fa
f3
f3
f2
fb
ea
f7
f3
f8
f1
f3
f7
f1
f9
01
fe
fe
01
ff
03
f7
f7
f7
fb
f7
f6
ed
d1
be
d2
cb
e4
f1
d9
e8
ed
ff
f0
e4
dd
e1
dd
e0
e8
00
fe
ff
01
f6
f7
0b
14
0b
00
eb
d5
e2
eb
09
01
01
08
fd
04
16
e9
f4
f3
ea
f6
f0
0e
f6
02
fc
03
f2
14
0b
06
f6
ed
f4
06
15
21
22
10
1e
1e
1a
1a
1d
06
01
00
02
0b
25
22
2a
fd
03
fc
00
0d
09
e7
fd
f5
e1
f9
04
0f
0a
f9
09
fe
00
07
03
19
30
1f
17
0a
0e
2e
35
07
fc
08
12
ee
f9
f0
f3
ef
f7
fa
fe
fd
01
fe
00
00
f8
01
03
16
20
0c
15
1c
2f
4a
2f
02
fd
f7
f7
df
f9
12
eb
eb
0c
f6
fa
fe
ff
ff
0c
10
07
fb
ff
ff
04
07
15
0c
11
44
32
f8
f4
f2
0e
08
f8
f6
f8
fd
06
fc
f0
fb
03
01
f5
fe
06
fe
02
0a
fd
14
15
06
1e
52
36
2a
f3
ef
0d
0a
d9
e2
fb
fb
06
fb
fd
02
f4
f5
e4
e7
f9
fb
f7
05
07
15
18
09
25
3c
2a
e7
f5
f0
fe
fc
f6
e2
f5
fe
0d
00
0c
fe
0b
eb
e9
d9
da
dd
f9
fa
fd
00
fe
17
21
16
26
f2
ec
f1
d7
ee
fa
ef
f8
f6
02
0b
07
02
0a
02
f4
eb
ef
ef
f6
fe
ef
e5
cd
eb
18
2c
52
eb
f0
ee
e5
04
f9
05
02
fe
f5
03
0d
17
1a
21
0c
03
f3
f5
01
01
ff
ed
c0
c4
cb
de
f0
d0
1b
fb
e3
fe
f6
08
08
11
0f
15
08
17
20
28
21
1e
06
f9
03
03
ee
cc
c4
d5
ce
d2
da
ee
14
09
d2
ed
f0
fc
0c
11
19
14
12
15
0d
17
26
1a
11
01
f1
d3
ca
cb
ca
d4
04
fd
e1
ea
0c
0e
00
0d
fa
fc
18
15
1f
14
0c
06
15
20
22
0c
0d
f3
ea
d3
bf
d8
cc
e7
17
1e
f5
f6
f1
0f
17
18
fe
01
18
05
08
06
08
0b
1d
17
0b
05
ff
ec
f0
e4
df
e1
f1
0b
27
25
00
f9
fc
09
18
26
12
11
1b
1e
14
13
07
13
07
0a
03
fe
fe
ee
e8
f0
e9
fd
ed
18
16
ed
ef
09
f3
ff
14
1b
02
20
24
0f
05
04
06
f8
f0
fe
00
fe
f9
eb
de
f7
03
fe
fb
1d
1c
f4
dd
e3
f9
dc
04
09
f9
17
12
f1
ef
ee
f1
dc
dc
e6
ee
f6
04
ff
01
0a
14
0a
15
41
25
13
ee
e4
fe
f8
09
fa
0e
0c
fe
f6
f5
f4
e1
e8
d9
ea
f2
06
0e
16
15
19
22
16
24
2e
0a
1b
e7
fe
f1
f9
09
eb
03
ec
ec
f1
f6
f5
e7
f1
eb
fa
ff
0d
08
1e
14
17
21
17
2b
24
01
11
ff
fb
f5
06
03
fe
02
cc
e0
ec
e6
ef
f8
04
f7
07
0f
0d
17
13
11
0f
18
15
13
2a
13
19
24
fd
fe
fc
0b
29
12
e8
e8
ec
06
05
07
06
fe
05
0f
14
21
12
13
0e
2c
1e
34
49
23
19
18
fc
ff
ff
0c
30
0a
e8
07
06
18
12
10
10
18
1c
1b
17
27
0d
16
11
22
21
35
37
11
ec
ef
fd
04
04
1a
fd
e6
f3
1b
16
13
0f
13
06
16
2b
24
29
23
18
1f
10
0f
0c
25
49
26
01
f4
ff
fd
fc
ff
0d
1e
08
01
09
04
f8
fd
08
1a
0a
17
0e
0c
10
04
e4
05
05
e2
fe
e6
ff
02
00
04
fd
02
04
fb
fe
13
0e
09
12
f0
0d
0d
f3
0e
1c
f6
ca
f0
f9
e6
d7
d6
dc
02
fd
ff
fc
fd
02
fc
fd
03
fe
fe
ff
02
fd
00
02
0b
0a
fa
01
02
ff
fc
02
03
ff
02
02
fe
00
05
00
fc
00
02
ff
00
03
fb
f9
0c
0d
21
20
19
22
fb
e9
f9
03
13
f2
fd
0a
f3
f7
00
fc
fd
04
03
03
0e
e6
ef
11
23
30
2d
0b
03
20
31
0d
28
10
ff
02
05
ef
0b
23
2b
10
ee
e5
02
01
fd
fd
f5
e8
04
00
10
08
f0
0b
09
0f
eb
f8
fb
00
f5
ff
00
f4
dd
0c
26
10
fb
e9
08
fe
fc
fe
ec
e3
05
f7
f5
ff
f0
01
05
00
0f
09
08
04
05
0a
f4
ee
f8
00
0b
15
f7
ec
e8
06
ff
02
fc
f1
ff
ec
f6
00
1c
1c
22
16
19
04
05
02
0a
0a
fa
e9
e9
e8
e7
01
0c
18
00
10
01
f1
fd
0b
14
22
00
10
19
18
0b
08
09
f6
f5
f9
fb
02
f9
fa
e8
e5
f1
fb
f9
15
06
13
08
e5
20
13
f5
0c
0d
16
1b
22
17
12
f7
e7
df
fa
05
07
07
f5
f7
05
07
f8
14
15
11
17
25
0f
1d
f9
fc
2b
2d
1c
22
29
17
15
e9
d6
d9
ee
f6
03
f4
f1
f9
01
f0
01
28
25
04
de
10
21
05
f6
f3
21
16
0c
0e
1c
14
0a
e5
ce
d2
e2
f8
fd
f7
fb
f8
f7
df
ee
0d
02
02
09
15
1c
22
ee
1b
25
0a
0d
1e
2e
1b
07
da
d5
d6
f6
f8
f4
fb
07
f7
f5
f0
dd
f8
03
fb
f3
1b
24
2c
e3
f6
0d
0e
1a
27
2f
21
ff
eb
d8
e9
fb
0a
f6
f7
01
e9
f2
f0
f1
df
ef
ee
02
0d
22
2c
ee
e0
fe
05
12
27
17
0d
0e
ef
db
e2
ff
0a
fc
fa
fe
ef
ff
0c
0b
1e
1b
f4
0e
fe
1e
40
da
ee
0e
ff
06
0c
0c
0f
06
e9
dd
e8
05
03
f5
07
09
0f
12
1a
15
1f
23
0c
15
1c
f6
1b
f0
fb
18
06
12
0b
07
08
17
fe
ee
f3
f3
ff
0f
19
1e
09
0a
23
10
0c
22
03
03
19
fb
f5
ff
ed
fe
06
16
0a
0a
0f
18
0e
02
f2
fb
02
1a
1e
1e
05
0f
0f
fe
ed
1e
11
0a
0e
f6
ea
ec
e2
02
11
01
07
f6
fc
04
0c
fe
f9
0f
1c
2a
15
19
14
0f
0e
f9
ee
15
08
f6
02
ea
13
de
eb
fd
0a
fa
f6
f0
f1
02
11
10
09
0f
1e
1b
1a
13
1f
0e
01
f9
15
30
11
e3
f5
ee
01
f0
fb
fb
07
01
f1
ec
ee
0b
24
24
22
0c
04
0d
18
07
0d
f9
ee
fe
1d
18
22
ea
f0
02
01
fa
fc
f8
03
f4
f3
e8
f8
19
1e
20
21
0a
f4
fe
06
fa
fb
f4
e9
ff
12
f8
0e
eb
03
12
0a
0d
f9
fb
e7
e9
e5
e1
fe
1b
22
14
07
06
f0
f7
f7
f9
ee
ea
f1
06
18
ef
0a
f7
ed
06
f4
fb
01
0a
eb
e1
e7
f9
fd
0b
15
11
07
01
fc
fb
f5
fd
f7
f4
0e
1c
20
d3
13
fd
e9
fb
fb
f3
fe
f1
e9
f0
f1
f8
fd
fd
05
fb
00
04
0c
f2
f6
f6
e5
0d
01
fc
04
d4
e0
ff
03
fc
e3
de
f2
e5
e4
e9
f4
ee
e9
f1
03
f8
12
08
10
ef
f0
fe
fb
09
05
ed
e4
e9
de
01
00
fc
fb
e8
ea
f7
dc
e0
e3
ef
e9
f6
fb
f9
03
06
0f
f7
ff
07
fa
f8
09
f2
f5
0e
fe
03
ff
fd
ee
25
19
ef
e4
ed
e1
e3
f5
fc
df
ec
08
1b
1b
18
09
e5
f9
26
1f
fb
e5
12
06
00
01
02
03
00
12
ed
e7
ef
e5
e5
dd
dc
f5
f4
ec
01
f7
ef
f7
ee
fd
07
01
fa
ea
0c
04
00
fc
00
00
03
06
0b
01
f7
fa
0c
0d
ff
fc
34
fc
f3
03
32
28
14
14
f4
02
f7
03
fd
00
01
02
fc
00
ff
03
02
02
03
ff
00
04
fc
fb
ff
fe
00
04
ff
fc
fe
04
ff
fe
02
01
fc
04
03
04
02
fe
ff
02
ff
f7
f2
ed
f3
f5
f5
e9
ec
0f
09
f8
fe
f8
f6
03
ff
fd
03
ff
00
fe
fc
fd
ff
fd
e7
f6
f6
f9
e8
ed
f7
dc
d7
e4
f4
0f
24
27
18
17
19
12
08
0d
12
fe
02
04
04
04
fe
00
e3
f6
0f
03
10
2a
1e
12
00
23
08
14
1b
0f
fa
e5
e8
03
0e
0c
10
33
fe
01
fe
03
05
0e
16
01
0d
16
18
16
0e
16
1a
16
08
0b
25
14
0c
1c
11
fe
14
13
fe
1b
1f
20
fc
02
04
f1
fc
01
39
28
15
11
0d
02
09
04
08
09
0d
0b
0f
17
10
0c
fa
fa
ff
07
28
20
0e
ff
1f
08
12
15
12
12
03
13
0d
07
08
00
fd
fe
02
03
04
07
02
0a
ff
fe
fb
14
38
32
21
00
2a
07
13
f8
01
06
04
02
07
06
02
fa
eb
fd
ef
01
11
08
12
24
0a
03
fa
06
3e
2b
20
fc
1f
fa
fc
e8
fc
f0
f5
fd
03
06
07
fe
fd
06
08
fc
02
07
06
0c
02
04
e8
07
10
1b
00
12
15
f4
01
15
f5
06
04
0b
0a
fd
06
10
0b
1b
14
f8
f3
f4
e3
e6
e6
0f
e9
f8
fe
fb
04
0d
10
07
17
1c
03
0d
fc
0c
07
0b
14
19
26
11
fb
f6
f0
ea
eb
e8
da
e6
c7
cb
f1
14
0b
17
0e
37
26
35
12
04
f2
ed
fe
0c
1e
20
0f
f6
fc
fe
08
07
00
ef
da
d4
c5
9e
eb
0f
0b
08
0d
18
26
20
0d
f4
03
0c
01
1a
1c
0a
f6
f6
fc
08
ff
10
0e
09
f1
dc
c2
89
d7
03
ff
fc
08
19
27
06
0a
ea
05
05
0e
03
fb
f3
ff
fd
fd
13
07
0a
06
0e
fd
f3
d6
d2
e5
09
ef
12
19
2e
32
fc
d8
d6
e4
f9
f8
ee
e7
f4
f5
ff
07
fd
f3
09
0b
0f
0d
0b
23
11
04
14
f6
0f
0d
26
1e
eb
cd
d2
bf
c9
df
d6
e5
ef
e4
ec
08
f7
f5
0b
0b
07
fc
0a
29
2c
11
30
fb
ff
08
1c
0f
e0
ce
ca
ba
bd
c1
c4
c7
db
e5
eb
09
fc
fe
16
14
fe
03
07
0e
29
f3
0b
f9
00
17
0e
0e
e7
e1
d3
ce
cd
b9
ad
bd
b8
b9
dc
04
fa
05
04
00
f5
f9
f8
04
03
09
14
07
09
15
21
38
14
f0
eb
e6
ee
d4
d4
c3
ad
c7
fa
09
fc
00
fd
fb
01
14
07
f5
04
fd
fc
02
01
21
03
27
1b
ff
09
07
05
fb
f3
fb
f2
f6
1b
13
07
00
02
02
07
03
fb
02
1d
29
ee
f9
03
f9
e9
19
13
11
1c
1a
1d
0b
0a
12
0b
0c
10
11
0d
0a
07
fd
01
fd
0e
0e
16
1f
f4
06
fa
00
ef
07
17
16
1f
2a
1f
16
1e
20
23
13
14
13
06
f8
05
fe
08
0a
09
00
e9
ed
f4
f8
00
fc
fc
0a
14
0e
ff
09
14
0a
12
10
0f
07
02
07
00
11
07
0c
07
fd
08
06
d3
c9
fa
f1
03
fe
2a
17
29
05
eb
f9
ec
fd
19
18
0b
02
09
0e
02
0b
fb
f7
f9
e5
e4
f4
da
ce
13
fe
01
fe
24
2b
2d
0c
0b
0a
0f
07
0f
11
03
f9
ff
00
fc
11
e9
d2
d7
e1
eb
03
ed
d7
08
01
00
03
0d
14
1b
19
1a
39
49
2f
1d
25
2b
19
0d
12
1e
0d
07
12
fd
03
15
1b
15
ee
00
fe
01
02
01
01
e0
e4
f9
18
18
25
21
34
1d
2a
1f
41
3a
32
29
3e
16
0e
12
07
04
10
fc
03
01
03
fd
fd
0c
18
22
1f
2b
16
0d
f7
00
28
0b
fb
1d
3d
10
fe
0c
07
01
0a
01
fc
01
04
01
00
ff
01
fe
05
04
02
fe
fc
fd
04
fc
fc
00
01
fb
fc
00
fe
03
01
fc
fc
03
ff
fe
01
ff
02
01
fe
fc
02
fd
ff
01
fd
02
fd
01
00
02
fb
01
03
fd
01
00
04
ff
00
fe
ff
01
fc
03
03
02
03
ff
01
00
fd
fe
fe
ff
fb
fc
ff
fe
fc
02
03
03
04
fd
ff
fe
01
01
01
03
02
fe
03
03
01
fc
fd
01
02
05
03
03
01
04
ff
02
ff
01
04
03
ff
ff
fc
01
02
02
fc
fd
03
ff
03
03
ff
fd
fc
03
03
00
fc
fd
00
02
fe
fc
fb
03
01
fb
fc
fb
00
fe
ff
ff
fc
fc
fc
fe
01
fe
00
ff
04
ff
05
fd
fc
01
fc
01
fc
02
03
ff
00
04
02
fb
ff
fb
03
fe
00
fd
fe
01
04
fe
00
04
03
00
05
01
03
ff
fb
fd
00
01
fa
02
fb
01
03
00
fe
01
fe
fc
fd
02
04
00
fc
fb
ff
02
fe
02
fd
03
fd
fe
fb
fb
ff
ff
01
fb
00
fe
01
fd
00
01
01
fd
01
ff
01
fd
fc
fc
fd
ff
02
ff
fc
ff
fd
01
fb
fd
fc
ff
ff
ff
03
fd
fe
00
02
02
ff
fd
01
03
00
03
04
fe
00
fd
02
03
fe
00
00
fe
02
ff
fa
fb
fa
ff
01
fe
03
fe
ff
03
01
ff
04
fd
02
03
fd
fc
02
ff
fe
00
fc
03
fe
fd
03
00
00
fd
04
fe
04
00
02
02
fb
fc
fa
02
04
fe
fe
01
02
02
00
fd
03
fc
fa
fd
00
00
01
fc
fd
fd
fd
fc
02
ff
fb
fc
fc
fd
fc
fe
02
fc
00
ff
fe
ff
ff
ff
fc
00
03
02
fd
00
fb
03
fa
fb
fc
fc
01
ff
00
fe
fe
fd
fc
fb
02
fe
ff
02
ff
ff
fc
fb
01
fe
01
ff
ff
fb
ff
fe
fd
ff
00
fd
01
03
00
03
01
fb
fd
fe
01
00
04
01
fd
fe
fc
fe
01
ff
fa
fb
00
fb
fc
fd
05
ff
fe
fd
03
ff
00
00
00
02
ff
00
ff
fc
ff
04
fd
fd
fc
ff
fb
fc
03
01
01
00
fc
fe
fd
fe
03
ff
04
fc
fb
03
fb
03
00
fb
04
ff
fe
fc
fc
01
fd
01
fe
01
fe
00
ff
00
fd
fe
02
fe
fe
fc
ff
fc
02
02
00
03
01
fc
00
ff
fd
01
ff
fe
01
fc
03
02
03
fe
00
ff
fc
02
fd
ff
fd
fb
00
00
fe
02
ff
fe
fd
fe
ff
fd
fd
ff
ff
fd
04
04
fc
01
fd
fe
03
00
fb
04
ff
fd
fd
03
ff
01
02
fd
00
fd
05
fe
04
01
03
fd
00
02
01
00
02
fc
fe
01
01
03
fe
00
fd
fe
fd
02
ff
00
01
00
00
00
fd
01
00
fc
04
00
fe
fc
fd
02
fd
fe
fc
03
fe
02
03
fb
02
fe
03
01
fa
ff
00
fd
02
fd
ff
05
05
02
fd
fc
fc
00
04
02
ff
04
03
fd
fd
ff
00
ff
01
02
fe
01
ff
00
01
fe
fd
03
fe
03
fe
03
02
ff
03
ff
02
02
01
01
ff
fe
02
01
00
02
fc
fe
ff
02
fb
fc
fe
fc
fd
04
01
fd
00
00
fe
fc
02
ff
05
fd
fd
ff
fb
02
02
03
fc
02
02
fd
ff
01
02
fb
04
ff
03
fd
fc
fd
03
fe
03
01
02
ff
ff
ff
fe
04
00
fe
fb
00
fb
ff
02
fd
02
fe
fc
fc
03
fd
02
01
02
fd
04
fb
fd
03
00
fd
ff
fc
fc
ff
04
02
01
fe
03
ff
01
ff
00
01
03
03
01
02
ff
03
01
03
ff
fc
01
02
04
02
02
04
fe
04
03
04
03
fc
02
04
fd
00
fc
fe
01
03
ff
fc
02
03
ff
04
04
ff
00
01
ff
ff
fe
fd
02
ff
fe
04
01
03
05
00
01
04
fd
ff
01
00
01
02
fe
00
04
fd
fd
fc
03
fc
fe
03
fd
04
fe
01
01
00
03
04
fd
03
01
fa
fc
01
03
fc
fc
fb
01
ff
ff
04
ff
fd
00
fd
ff
02
01
f8
fd
f8
f1
f6
f8
f1
e2
e4
ed
0a
dc
d7
dd
ef
d6
da
f6
f1
f3
fd
fd
04
fd
03
fe
f6
d9
d7
fc
ed
f1
e3
dc
ce
b7
c5
da
dc
cd
d1
f2
fa
e5
e5
eb
fb
dc
e3
f4
03
fc
04
03
19
da
0e
fb
e4
df
cd
d1
e6
d4
d7
cc
e2
e9
ef
f7
01
ee
09
15
08
20
fe
0c
ed
ff
fe
fe
1b
1a
ff
e9
dc
d7
d7
e1
e2
fa
13
04
19
14
10
10
06
f1
0b
0d
00
12
3a
36
20
eb
fe
02
e6
0a
e0
dd
d7
ec
ef
06
00
2d
2e
1a
14
14
0d
15
09
06
0b
03
ef
f1
10
3b
1c
fc
fc
dd
0b
d8
ea
d7
e7
f7
16
24
20
29
2e
25
24
27
29
2b
1c
1f
14
fd
f0
09
11
51
1d
f4
fc
d7
07
d5
de
e9
f2
ee
20
1d
1a
1c
23
24
16
29
22
16
20
1c
12
09
fe
15
1d
29
12
e6
d7
e0
f3
f4
e0
fe
03
02
1d
17
17
1b
0c
14
14
12
11
0a
19
14
0a
0d
fc
0a
36
53
4a
1c
f3
eb
fc
f8
ee
f5
09
ff
03
03
05
08
f8
00
03
fa
ff
fd
07
0f
04
10
03
0d
28
44
3e
e4
f5
f0
ca
f0
10
fe
00
02
06
05
01
f8
04
f5
02
ec
e3
e4
03
06
f4
f8
f9
12
0b
23
24
07
f0
d8
de
f8
1c
1a
06
0e
0c
0a
05
fd
12
10
11
02
fd
05
01
fd
f7
f0
f3
01
0f
24
42
f7
06
f4
f7
13
26
18
07
06
fa
fc
fb
0a
0b
15
08
11
08
12
ff
04
02
fc
f5
0f
ff
02
fe
cf
ec
03
e0
03
1b
09
f8
06
fc
01
06
0f
0d
15
10
1e
1a
0b
02
0e
14
f8
fd
ed
d2
e0
e2
e6
fe
14
dd
fd
16
f8
fd
00
fb
07
11
14
08
0e
0c
06
1a
12
10
13
01
f4
e8
de
cd
f6
cd
e9
fe
13
d4
fa
14
f7
12
fb
11
0e
19
10
ff
02
07
04
12
1f
0f
01
f7
f0
f8
e1
ca
ea
ea
d9
ed
09
e9
f8
07
f9
0f
fe
13
14
1a
0b
10
03
f9
01
13
12
06
f4
fe
e7
ee
e4
d4
d9
d4
dd
fe
06
ef
f1
f7
00
0e
0c
12
1c
0e
0f
0b
fa
fc
08
0d
0a
f8
f5
fd
ed
d5
da
e4
c7
ec
da
05
02
fb
f0
e7
0b
20
0b
fd
00
0d
0d
f7
f9
03
07
01
f7
ea
fa
01
f0
d8
e2
e2
ba
13
e5
fe
d6
f0
e7
e3
00
0b
03
01
f6
ff
e6
ea
f3
00
f8
f7
ee
f3
03
fe
f1
ed
f5
09
d8
e2
ed
00
e0
d4
d3
ec
fe
fb
f3
f9
ee
f8
e4
ee
03
02
04
f6
f7
f6
07
07
f7
01
03
11
0a
e1
f4
eb
f6
d7
c3
f8
f3
fd
fb
01
0a
f7
fc
fe
07
0e
06
ff
04
f9
0b
16
0d
08
06
03
05
d9
f9
ea
fa
de
e9
fd
d7
f0
fe
f3
fc
01
0b
11
15
1d
fe
02
fe
00
fe
12
19
18
1b
20
08
0d
f7
fc
fe
e2
08
fd
ec
db
e9
04
f8
01
07
0b
10
14
0c
17
05
0a
06
1e
1e
34
38
24
08
fb
00
fd
00
05
fb
0b
fd
ef
02
09
fa
09
1a
18
26
0f
1b
22
02
10
1f
2b
0c
20
24
e1
de
f3
02
04
00
1b
f1
04
16
07
08
fe
12
27
1f
19
2a
32
2b
2c
2f
28
18
24
1e
fc
fa
ec
fc
f2
fe
03
04
02
0f
25
2f
30
22
22
27
21
23
23
28
40
1e
29
34
22
fd
29
34
19
1c
1a
ee
fd
04
02
00
00
01
e4
de
0c
16
11
06
09
23
21
f8
24
29
00
e9
1c
14
f6
eb
f9
db
03
fc
04
02
fd
04
ff
fc
ff
02
fc
00
02
fe
00
fe
ee
f6
03
04
02
fd
02
fc
04
02
ff
fc
00
02
fe
ff
fb
fb
00
04
fe
fc
ed
ee
e7
e3
e3
e0
c7
c7
ff
ef
e9
d4
cf
ce
d2
e5
ee
fa
fe
02
04
00
00
04
f9
00
f5
ec
f7
f2
ef
0b
ef
d7
f5
00
ea
ee
03
f7
e3
dd
d9
cb
ce
e3
fb
10
02
01
02
01
24
f4
da
f1
fa
de
f6
f7
03
04
19
02
17
1d
23
1c
0b
11
06
e7
d6
a7
cb
e3
ea
02
ff
03
23
11
f4
fc
02
01
fe
06
11
0d
05
00
0a
1d
22
11
0f
18
12
f3
e5
ae
c4
d3
de
e4
fd
00
03
fd
e2
0c
1e
0e
0a
12
0d
ff
fd
f6
f0
ef
0a
0c
14
0a
fc
01
14
f2
d2
c7
dd
e5
03
24
ff
14
04
1e
10
06
09
17
18
ff
f7
f2
ee
f0
ff
09
09
0b
ff
06
0e
08
e2
b4
d8
df
04
2c
1d
28
1a
04
00
15
10
16
11
12
06
03
07
f9
07
0a
0d
1d
0a
05
1a
0e
e0
bf
e0
e5
13
22
03
10
14
f5
f1
fb
fa
08
11
15
06
f8
f9
0c
13
1a
0e
04
fb
fc
0a
fb
d0
dc
dc
03
08
0e
0e
f9
ec
05
f3
eb
fd
f9
fb
fa
f6
d5
cc
fb
28
14
08
f6
f6
fa
06
f7
c6
df
e0
0f
0e
08
23
e2
d4
e2
dc
d8
e3
da
d8
d0
c5
bf
c0
05
22
17
f8
02
fe
03
00
d6
cc
0a
e9
22
0a
0f
fe
f1
c1
c4
bf
b5
be
b5
bf
c1
d2
df
f0
0c
0c
07
f3
f8
fb
01
03
da
eb
07
d4
f1
01
f2
ef
e2
b9
b0
c0
b8
bd
b9
d5
e8
11
13
f1
fe
09
fe
f6
f6
02
02
f2
da
f6
0d
19
f9
01
e9
f9
03
c9
d5
dc
db
e9
f3
03
14
22
0a
f0
f2
05
fb
f6
f9
09
0e
e5
e5
23
2d
2c
0a
ff
ed
01
1b
13
f5
04
12
0d
1c
1e
23
20
04
07
04
0b
14
03
04
02
fd
f8
04
1c
2b
34
0e
fe
f8
0e
05
15
22
12
16
12
1a
1b
1a
15
07
05
0b
03
0f
0b
0d
fe
f9
f7
07
12
07
37
09
07
04
1c
0f
1e
16
0e
1c
1a
17
07
01
0e
04
03
12
05
0d
0f
17
09
15
ed
00
10
1f
4b
1d
ff
04
18
0f
25
11
1d
1c
0c
01
f6
09
06
f5
05
12
0a
10
16
0e
fb
fd
ff
00
0e
21
37
f5
fa
0a
0a
16
26
18
0a
0e
04
03
fc
05
00
01
11
0d
0c
14
18
10
05
0d
03
ff
20
29
1c
21
0c
0c
04
22
22
17
05
09
07
09
01
03
f4
09
09
0c
0b
0d
05
08
0f
0f
fa
02
19
2b
22
1a
ff
02
10
24
16
08
04
f5
f7
04
fa
01
04
ff
00
00
01
07
04
fe
0c
07
00
fb
16
10
27
0e
15
0d
3f
23
f9
fa
f6
f1
fc
f3
fb
fc
f6
00
f1
f1
f5
fb
f2
fd
05
13
ea
f5
2f
01
2d
07
12
14
3a
10
f3
0a
f5
f6
f0
e8
f1
00
f5
ff
f8
f2
f8
01
e8
01
0d
0a
03
ff
12
ed
fc
05
fc
fd
30
14
01
fb
01
10
f0
eb
f6
05
fe
08
fc
f6
f8
f4
ea
f3
f0
04
f2
04
f7
f5
0e
02
04
04
20
1b
10
f1
fb
0b
14
0f
fc
00
07
11
0c
fc
f7
f8
f7
e0
f7
fb
f3
fd
07
02
07
04
fc
01
e7
2d
29
ff
f7
01
0f
fe
fe
07
0b
02
fd
f8
f6
ec
e7
eb
e5
c6
cd
eb
ed
fd
0b
fc
03
fc
03
00
e7
cf
c3
d7
e0
f3
0d
f9
f3
da
f1
f6
f2
f9
e4
d8
bb
e6
ef
f0
f1
01
fc
04
04
ff
fe
00
0a
03
f2
f4
f6
00
f2
e8
f3
06
f4
03
13
1c
0f
f6
fa
00
fd
02
fc
fc
ff
04
03
01
fd
fe
00
fc
00
01
04
ff
05
00
fc
0e
11
05
fd
02
fd
03
fe
ff
ff
04
fe
ff
03
fd
00
fc
fc
ff
ff
0e
0e
12
0d
08
0f
05
fd
00
f4
fb
03
ff
24
29
27
11
10
0d
fd
01
03
01
03
fd
03
e8
e1
0f
1f
1e
26
2e
2e
2d
36
1b
34
32
2c
42
3c
18
2d
0a
ff
32
1c
1b
02
02
fe
02
18
f4
1c
12
13
07
1c
36
2b
25
3e
2a
11
12
0a
f2
13
0e
0f
10
09
1b
2d
1e
12
03
fd
01
21
11
f6
ff
0f
0a
24
1f
38
2b
28
0d
14
0a
0d
04
fe
f4
ed
f1
ef
f9
23
21
28
11
fc
02
3e
34
13
f1
f9
06
f5
f9
07
12
20
14
11
0f
12
0b
ff
03
06
fe
05
04
1f
58
4a
16
03
23
01
fa
fb
e4
eb
f3
f1
fe
0b
11
11
0b
12
1b
14
0a
03
ff
ff
eb
ec
06
30
79
38
17
fe
0c
e9
e8
08
f3
e5
e7
09
f6
ff
0d
0b
0e
16
17
0a
f1
f2
f5
f9
f9
03
e7
00
2d
39
13
db
fc
f0
f6
f8
e4
e6
ea
f4
ec
fa
09
07
1b
0b
ff
fb
fd
f4
ff
f0
f8
05
f4
e6
2b
41
23
f6
d8
ed
fe
f3
e6
fa
f7
00
f7
fd
08
0c
0d
0c
00
f7
f5
f3
f1
ea
04
0b
03
00
30
3d
e4
f3
de
db
08
ee
01
00
f5
fa
f0
04
03
0e
00
13
fd
f3
e4
eb
eb
f5
f8
fe
1b
13
26
2e
f5
e6
cf
db
fc
02
04
07
f5
fb
00
ea
ef
fe
04
0f
0c
fc
ee
e5
f5
ff
01
ff
14
23
49
3c
ea
f3
ed
ed
08
0e
0e
fd
fe
f3
f4
e8
e9
f1
04
1f
15
fd
f1
e6
08
13
08
f6
fc
06
17
09
e3
0c
02
d8
0e
fa
fc
f3
ff
f8
f2
de
e9
ff
30
27
17
fc
f5
fd
0c
15
00
eb
ec
f6
fd
25
27
19
05
d4
1b
f8
dc
03
f7
f3
ed
f5
f8
01
25
2a
19
0e
eb
fb
fa
03
f8
ee
dc
ea
12
2e
22
07
04
f7
18
f4
f5
12
eb
fc
02
0b
11
19
2e
33
11
0b
f8
fa
fc
f3
e9
dc
d7
01
2a
0c
28
f0
13
21
2f
0a
07
12
e5
e8
00
12
14
28
2a
25
08
06
f8
f8
f5
ee
f1
f5
f6
19
35
19
20
fe
0e
19
2e
0d
0d
12
f7
07
05
09
0f
1a
24
12
04
fc
ff
f2
02
f4
0a
ea
fa
fe
22
06
18
07
14
1a
31
10
10
20
0f
06
05
09
0e
16
1c
19
10
04
02
f9
0e
00
07
fd
09
0f
2d
f1
16
fd
d5
0a
02
08
0b
19
0e
02
08
19
09
0c
1c
10
15
15
17
1a
15
0c
07
1a
35
22
3c
29
07
04
e8
f9
0e
0f
11
15
16
0a
10
02
06
fd
0e
11
18
22
15
22
11
1b
1f
2c
3f
32
3d
12
f0
ef
0d
00
01
16
ff
01
0c
04
03
ff
ff
01
11
12
0a
13
21
1e
15
11
10
21
41
24
27
e6
fd
f3
06
17
24
29
02
f4
00
01
05
02
14
00
02
fe
f5
07
08
0c
03
1c
15
18
32
2a
19
d4
f4
02
fd
29
58
38
07
e6
ee
0a
02
08
07
04
03
fc
03
0e
00
12
1e
30
2d
4e
51
32
06
f4
04
01
01
fc
06
04
e2
f8
f8
09
05
0d
0d
04
06
06
05
12
0c
17
1e
16
2b
2e
24
30
0b
0a
fd
ff
fe
1c
d6
e8
0e
24
1c
19
16
26
0d
16
1e
0e
1d
13
14
15
0e
18
06
11
2f
16
08
0b
fc
fc
ff
ff
fe
1f
26
18
08
06
fc
10
16
14
0b
26
12
08
15
10
f7
0c
0a
e8
15
1b
e7
04
02
02
ff
01
01
ed
f0
08
0e
08
fb
f8
14
17
f2
20
27
02
e4
03
0c
ee
e0
e4
ed
02
01
00
00
02
fc
fc
03
fc
02
03
03
01
01
02
03
fd
f9
05
02
03
fd
ff
fd
00
04
01
04
03
fd
04
00
04
01
ff
04
fd
f4
ee
ef
ea
f5
f6
f6
f5
f5
fa
ed
e6
e6
f1
f3
f2
fc
f3
f9
fe
04
03
02
04
fd
f9
fb
fa
fb
ee
d9
d1
c4
c7
bb
bb
ba
c3
e4
f6
1e
1a
09
06
f2
ef
f2
f9
f9
01
ff
04
00
fb
f5
e8
e3
c4
a1
9d
a2
a9
c1
d7
ce
e5
e4
f6
02
0c
16
08
12
13
01
ea
ef
fc
03
fe
02
1a
1c
f9
ed
d0
d7
e2
ca
d8
fb
06
02
e7
ed
f4
f0
f7
11
05
1c
20
1d
1a
07
07
e3
02
01
05
ff
e8
01
02
01
07
1d
0a
11
0f
f7
f8
ff
10
0d
f4
f1
fa
ff
0e
16
02
02
ee
13
fc
01
24
f1
f7
18
0a
0a
1e
1b
f5
ea
ed
02
01
ef
fe
ff
f0
f8
f5
02
0a
08
01
02
1e
f5
fa
2b
42
04
03
0f
0d
19
10
01
e8
e4
e1
ef
eb
e5
f5
fa
ea
f5
00
f9
00
01
01
1c
29
ef
f8
15
34
0e
07
19
11
10
fd
00
01
f4
e7
e3
e6
f7
ee
fe
0d
f0
f9
ff
fb
00
0f
3b
0c
e5
05
2e
21
04
00
1a
17
0e
0f
fb
f3
01
fd
f6
01
1f
18
09
05
fb
06
20
19
0e
f1
10
07
fe
06
27
0c
fe
11
f8
08
09
1b
15
12
06
06
f9
ff
1b
04
00
07
03
12
1b
10
db
e0
05
f3
0f
15
12
ff
24
1c
05
06
0c
1c
22
22
15
12
f4
fb
18
05
fb
05
f8
fe
fa
f5
db
d2
fc
ed
22
0e
13
fe
08
00
11
10
20
20
1e
30
24
18
03
f1
0a
03
f8
f7
fa
0c
00
07
fd
0d
f9
0c
19
f5
05
1f
ff
fe
2d
22
23
25
24
2b
32
23
05
fe
09
fa
ff
fd
f5
16
15
0b
f3
14
f9
f4
f0
ea
05
1e
00
fa
27
12
0f
1b
1d
17
18
24
0c
02
0d
0d
0e
fc
fc
fb
0a
0f
15
0d
ec
cc
ec
f5
02
24
26
f8
11
11
0a
11
1a
21
20
17
0d
12
13
10
0d
f6
ee
f9
0e
2a
20
fb
e6
f3
ef
0e
05
0b
11
e5
f6
10
17
14
14
0b
0e
23
1c
11
25
0f
0d
fd
fc
ff
23
0f
1b
17
e7
e4
e7
04
05
1d
f7
ec
fa
03
06
ef
f1
ec
eb
f7
0e
15
12
0e
0b
0d
f4
00
0e
09
1c
12
ef
f9
e2
ee
08
23
fc
e9
f7
e7
d9
c8
d2
cf
d8
d9
f2
fa
f3
03
ee
ec
ea
f5
09
fa
fd
fc
ec
22
ff
ff
0d
15
0d
e9
e9
de
c1
ba
bb
c9
ce
c1
db
e8
ec
ef
f3
ec
e9
e9
fe
e1
eb
ff
e2
fe
01
00
06
16
f4
d7
d0
dc
c6
cb
e0
ec
e9
e5
f0
f4
fd
fb
0e
f9
e8
f8
05
06
02
f3
d8
fa
fb
03
05
0b
ef
df
d6
d5
e1
f4
fd
f8
06
01
fd
fe
0d
0d
11
ff
f7
0a
16
f6
0d
fb
f3
02
fb
06
06
0f
07
f9
d0
ee
04
0b
fd
03
10
02
ff
01
03
00
0a
0f
0c
ff
fe
f8
f9
ff
e2
1a
f5
01
ff
19
1f
2a
0c
0a
21
12
0e
15
0f
0c
0e
08
04
0b
07
05
f3
e0
e9
dc
e1
e7
ef
23
ff
00
01
19
09
24
39
34
27
0e
18
1f
1d
01
0b
08
ff
0d
05
01
f1
e1
ec
e3
e9
e4
f1
01
fd
03
ff
f2
e3
0c
fe
fe
f6
df
eb
fa
fe
fb
fe
01
0a
05
0f
0c
ea
d1
dc
fa
09
01
ec
fe
03
fc
00
fc
f6
f1
f2
dd
c8
c7
ca
e8
d6
c4
c9
cf
f1
e6
f7
ef
ed
d6
e0
07
e4
e7
02
fd
04
01
fc
fd
02
15
1b
de
df
e2
eb
e1
d1
dc
00
e6
ee
01
10
ea
d1
dc
1d
31
23
04
fd
00
fe
fd
fe
03
02
00
fc
fd
03
fe
fc
fd
fe
07
0b
00
04
fc
fe
02
03
fe
02
fd
fd
03
00
fd
00
04
01
ff
ff
05
11
11
0f
12
13
20
27
33
39
1c
3d
0d
31
29
2e
2c
12
13
0c
fe
00
02
fe
02
01
11
15
21
13
19
1d
0b
e8
01
24
1a
15
14
31
38
3c
31
43
37
3b
34
20
e9
e6
ff
03
00
01
24
23
1c
ef
13
10
ed
e8
f5
f5
f5
0b
0b
14
08
21
30
39
2b
2c
36
1e
09
e5
1e
01
fc
03
0e
06
ec
d2
db
d8
f1
ed
ea
ea
de
fa
ef
ff
f1
f0
fc
10
fa
0f
0e
0d
e7
f2
e9
0a
fe
02
24
f8
df
e7
e1
ea
e7
e8
f1
db
dd
ed
ff
10
03
01
f8
ff
f2
f9
09
1a
f5
e9
0a
fe
02
09
fa
e2
e3
e1
da
e3
e3
dc
eb
fb
ff
fc
0c
0f
fe
00
02
f9
f2
fd
0f
04
0e
ff
15
17
03
09
dd
db
c5
ca
cf
ed
dc
f9
03
05
fe
fb
16
0a
03
0a
01
f2
f4
f9
07
03
09
12
1b
1f
03
0a
f8
02
e4
be
d5
fa
e7
f1
fd
fa
00
08
06
00
f1
f1
d8
e0
f0
f1
f7
fa
ff
09
e8
f2
13
0b
ff
fa
e1
bb
d3
04
f1
e6
f4
fb
fb
03
0e
fe
db
c3
bc
be
ce
dc
dd
f3
0e
17
f8
1d
10
0f
1b
ed
e1
c4
ea
0b
f6
f3
f9
03
01
1f
1e
0b
de
d1
c9
c8
d5
d1
d7
ec
09
01
fc
ff
10
14
18
0b
f6
e0
f1
fd
ec
f5
fd
01
10
29
2c
02
ec
db
e8
e9
d2
dd
e3
eb
df
ca
d4
14
03
1b
20
1d
f6
fc
fa
ff
f9
f9
0b
0f
1e
26
1d
02
f2
f0
02
ec
e1
df
f3
ea
d5
dc
f1
24
16
1a
30
2d
0b
0d
09
fa
01
12
1a
08
12
07
0a
00
f1
ef
07
07
05
05
f9
02
fc
d4
c5
e7
11
fd
12
3e
fa
00
02
fe
14
21
19
06
10
00
0c
ef
f0
f7
0d
18
1d
16
13
ef
e3
d1
c9
e4
14
f4
ff
1c
ea
f6
f0
01
06
13
14
0d
13
0b
0b
e6
f3
02
16
0a
15
23
0b
00
e7
d5
c5
e0
12
10
f1
06
06
f9
de
f2
04
08
08
14
fa
02
0e
ea
fd
fa
06
0d
0f
0a
04
ef
e4
c7
c1
e9
03
11
fb
05
0d
e6
dd
eb
fd
f4
0f
02
f1
06
09
f2
02
03
08
0b
0e
11
04
f9
e3
b4
d6
0c
0b
12
03
10
07
e7
da
e9
f2
f3
ec
e5
fa
0b
09
05
07
16
10
ff
0f
03
ea
e5
e1
dc
f8
0c
06
27
0a
07
f8
e8
f9
fc
02
02
f8
0c
1a
13
12
10
0f
05
0a
fb
09
fa
f2
fd
09
f0
dd
0f
fd
19
fb
f5
f5
ef
f5
fe
ff
0d
06
0f
21
1b
21
17
0c
0b
0f
03
00
06
04
09
0b
f3
fa
0d
18
f7
d9
01
f6
06
f1
f7
03
fb
01
07
13
13
23
1c
14
08
15
04
0c
10
04
df
ef
01
f2
09
15
0c
e1
0d
09
fd
ea
f5
05
fe
03
f6
11
09
10
21
13
12
13
15
0f
06
ed
f2
ed
09
20
06
fd
fe
dd
04
10
07
04
f9
f6
08
0e
13
1b
0d
10
18
0a
06
f5
0e
f8
d7
ce
ce
dc
f0
1f
fe
fe
02
dd
e3
03
0f
13
0a
08
04
0a
ff
01
03
15
02
f2
06
fb
fa
e1
da
f3
e0
f3
0a
1b
01
02
ff
04
fa
f3
e0
06
12
f7
fa
e6
e6
dd
d5
cb
cd
ce
c3
ba
cd
e1
13
29
09
01
fe
fc
fd
00
00
03
03
f6
f2
ed
f1
d0
d0
ec
f5
d4
e1
b9
dd
df
c4
ca
db
f5
13
22
e4
fd
04
fd
fe
03
02
04
ff
07
01
01
07
0a
13
10
16
03
0e
dd
e7
fe
18
01
01
12
17
11
02
02
fd
02
05
ff
04
ff
fc
fc
fe
04
02
04
02
00
fd
f3
f5
f5
00
ff
ff
01
04
00
02
fd
fc
ff
02
03
02
03
fd
01
04
f9
f8
ef
f6
f3
f8
fb
f2
e1
ea
09
d0
d2
d9
ea
d0
d8
f5
f0
f5
01
00
04
fd
04
00
0a
e3
da
06
f2
e2
da
02
fb
04
08
16
12
eb
c9
d5
c7
e8
09
1f
1c
fe
0a
02
fd
04
03
ff
08
de
d1
00
f9
02
d9
db
dd
dd
d7
e5
fd
eb
e7
f3
dd
d5
d3
f5
20
0c
fd
1b
f7
fd
01
09
23
e4
1c
21
29
17
11
f7
e9
ee
08
0c
f9
f7
f7
fd
f3
ef
f0
f1
0f
09
fe
01
da
fa
02
ff
08
f7
23
48
34
06
11
07
01
f1
02
03
05
0f
08
fb
0c
fd
f8
ea
f3
00
f9
f4
bf
ec
01
ea
ff
2d
1f
21
1c
05
fd
ff
fd
f0
f8
09
02
00
00
fb
01
f7
fa
fa
ec
e5
dc
e4
d1
e2
fc
ee
1c
1e
04
06
19
05
e9
fd
f6
01
02
03
05
02
f9
fd
fa
f7
07
05
f8
ed
f3
eb
eb
d1
dd
03
0b
f7
0d
17
06
ed
f6
fd
f9
01
f8
ff
07
00
ee
f3
00
f4
fc
0c
ec
e6
fc
e6
03
eb
0d
3f
fa
0a
15
0d
f9
f4
ea
f2
fd
f8
04
0b
0d
03
ec
fe
16
0e
11
fd
ef
f2
e4
d8
dc
ef
11
35
12
10
05
01
f4
f5
ec
f5
f8
02
18
1e
ff
f4
e8
0c
08
1a
0a
03
07
e7
bf
05
c7
f7
1a
02
3c
11
f9
f7
ff
fb
fb
01
15
27
3d
22
f5
e7
ee
0f
16
1a
16
0c
0d
d9
b3
e8
d0
fa
0f
27
3e
ee
01
ef
fe
08
19
19
30
39
30
0c
ed
e7
02
0f
11
0a
09
0a
14
f4
d5
d8
d6
01
fb
fa
37
f3
25
0a
12
0b
1b
17
27
19
04
df
e3
ee
07
0e
0c
01
0a
1b
18
f6
db
e5
ea
f3
e9
15
32
16
3b
27
15
18
16
15
06
f1
e4
d9
ea
00
12
14
09
1a
1f
11
19
ec
c8
fd
e6
f2
ef
ed
17
25
1b
16
1a
1e
16
06
02
f3
e4
e2
e4
0f
17
20
13
27
26
0e
16
df
b9
df
17
ff
16
ed
0a
f8
16
10
1b
25
1f
0d
f9
fa
f0
d4
ec
22
1c
23
2c
28
1b
0f
05
dc
da
ea
ff
f7
02
f8
1b
fc
08
05
0f
12
17
0e
0e
f1
de
cf
06
37
22
1c
36
0e
02
f6
fa
da
e0
f7
f6
d8
0b
07
0c
23
16
fb
05
01
ff
fc
01
ef
d4
d1
14
2d
2e
24
21
13
f7
fc
ed
cb
e2
f8
08
19
01
18
0d
1a
0d
07
01
fd
f2
eb
e3
de
cc
d1
16
2b
2d
0a
0d
11
f1
01
e2
ce
e3
fb
05
09
fd
10
13
f4
e4
f7
f7
f5
e4
d3
ca
d4
d5
de
0a
0e
20
0a
06
00
e7
f7
ea
df
13
00
0f
f9
fd
12
fa
ca
d5
f4
e4
d2
f4
e0
d9
ec
fc
f4
f5
fd
0d
08
05
00
fb
11
06
fc
21
f5
d0
fe
00
07
f0
c5
d8
de
e9
db
f1
f0
f9
fd
00
01
f8
0c
12
0a
0a
03
05
10
13
f9
0c
ff
d6
02
04
03
f6
e9
e0
d0
e9
f6
eb
ea
fc
f5
fd
f4
02
0b
fe
03
fc
04
01
16
05
f5
01
fd
d6
ff
fd
fd
13
05
0b
f2
00
12
03
02
01
fe
f5
ee
fd
01
17
1c
fe
06
0d
0d
17
0f
f3
1a
07
01
03
fc
00
eb
0a
f1
04
fc
0e
04
f8
0b
17
18
21
02
04
f7
0f
02
13
1c
f4
da
d6
10
05
fc
04
02
04
07
24
0e
2d
2a
2f
2d
0a
ff
10
19
21
20
12
ff
fe
0c
17
18
1e
03
0e
03
ff
ff
02
04
00
00
02
0f
fb
fa
fa
15
0e
0a
25
13
ff
f3
19
4e
31
1d
2c
3a
31
10
04
04
02
03
04
00
04
fe
ff
02
fd
fe
00
00
00
ff
fd
00
01
07
01
03
04
00
ff
fe
ff
fe
ff
03
01
fe
03
00
00
02
f8
f5
f6
f5
f5
f6
fb
f9
e7
e4
13
e9
d0
ce
e4
cf
da
ef
ec
f5
ff
01
ff
04
fc
fb
02
de
dc
03
00
ee
ff
fd
ef
df
f2
04
ee
f2
ef
f2
00
e2
ee
07
09
e4
f0
f3
02
fb
00
ff
05
de
d9
de
e6
f6
e5
e1
e2
dc
cb
d4
eb
ec
f2
f4
e3
ef
e7
2d
2c
11
c6
dc
e1
03
fd
fa
f7
e2
fc
f5
f4
03
ff
f7
f5
f4
07
0d
0c
ff
14
17
ff
14
24
22
17
21
0d
05
f3
db
01
04
da
f8
fa
00
05
01
0e
11
00
fb
0d
fd
0e
06
13
0e
fa
fc
00
18
0c
00
fc
09
e1
e8
03
e3
f5
0d
15
1a
03
08
0f
f9
e7
ed
fc
e9
f1
f8
fa
0f
03
16
03
0a
02
11
f2
17
14
f1
00
eb
15
17
05
0c
11
15
06
fc
f1
e6
eb
ef
e6
f6
ff
15
14
14
17
1d
21
25
20
1f
1f
f1
db
09
1d
16
0f
29
20
1e
10
08
ff
03
fd
fb
f9
fa
f4
0c
1a
10
1b
16
0c
2c
3f
51
2b
f3
17
27
0c
11
10
29
1b
10
07
03
fb
07
01
09
00
02
fd
07
17
13
1a
1e
0b
1f
30
34
30
1c
10
20
26
01
2e
13
0a
10
08
0b
0e
12
18
0f
06
01
ea
05
0b
1a
08
0a
08
ed
fe
05
1b
20
16
fc
24
fb
1d
19
0d
17
09
0b
0d
11
1f
01
fa
f0
f0
f1
04
07
e9
e6
e7
e4
de
f6
20
0b
0b
23
1d
fd
02
09
fb
13
07
fc
00
10
12
03
dd
f0
f9
fd
00
ff
ee
e0
f0
e5
fd
09
1a
1d
fe
18
42
e6
f0
ff
f5
f9
06
fc
0b
17
0d
f5
ec
00
03
06
06
fc
fd
f3
ff
e2
f0
29
24
08
16
08
2b
f0
fb
03
e9
fb
00
02
0e
1b
09
00
07
01
0d
1a
07
0f
f3
eb
fa
ef
f4
29
0d
06
18
f7
11
0f
e5
e0
eb
fa
00
10
13
1b
0e
09
16
0b
12
1c
0b
07
f1
ee
07
e8
cd
0c
15
f1
16
f1
f5
02
e1
d9
f3
ff
10
14
09
07
11
04
17
16
1d
1d
0e
05
fe
0a
01
ed
da
0a
0d
09
ff
f7
11
ec
f0
f6
09
00
0b
16
0e
15
08
07
1d
15
21
0a
0a
02
13
15
0d
ff
0c
0c
0b
eb
e1
f7
fe
02
00
0e
16
1d
10
16
08
09
0e
11
1d
11
0f
06
05
03
12
15
fd
03
1b
00
2d
05
03
fb
f9
0d
08
0b
24
1b
12
09
f8
f2
e7
01
0c
0c
07
0b
fd
00
07
09
fb
08
0b
f2
24
fd
fe
09
00
08
f8
f9
16
12
0e
f8
ff
f4
fb
e9
f4
09
00
09
00
ff
05
06
04
08
f9
d5
18
06
13
0e
fb
04
10
20
1a
0f
0e
09
f9
fe
f5
f2
f0
ff
f0
0b
fc
fd
05
0c
25
20
05
e7
e8
fb
0e
00
00
e5
12
1c
27
25
1b
0d
09
04
f5
ef
f6
fe
f9
fb
fd
0b
05
23
22
15
0a
f0
e6
f9
02
fe
e0
ce
f4
fd
16
13
14
0e
08
01
03
f7
fc
01
02
f0
ef
08
05
0c
0a
fe
e4
f5
e7
01
00
ff
03
e4
e2
f9
f9
00
fe
09
ff
01
fd
f8
04
ff
fb
ee
fb
14
ff
fe
f5
02
ee
10
f0
fe
02
ff
db
24
10
ea
e0
ea
ec
f6
0e
0d
02
06
13
17
12
15
09
e7
ef
fb
f5
fc
e6
f3
f3
fe
03
04
00
f5
06
ea
ed
fb
07
07
f8
f2
f5
fb
f1
0e
f3
f1
f5
f1
e4
f1
f8
00
eb
0d
fc
ff
fc
fb
02
fe
18
19
01
f3
f8
15
15
f3
f0
2b
03
08
07
21
03
1f
18
14
09
1b
01
00
ff
03
03
04
fc
00
fd
fd
fc
fe
04
03
fd
ff
04
05
05
ff
fe
02
01
fe
fd
00
04
fe
ff
02
fc
fe
01
fe
04
ff
02
ff
ff
02
f9
f8
f9
01
ff
01
f9
fb
f7
00
ff
fc
fc
fe
03
fd
fc
00
fc
01
fd
03
03
08
fc
fe
0f
0b
23
25
06
e4
e8
eb
d9
d7
da
e0
ed
f6
ea
e9
ec
13
19
03
fe
fc
00
03
07
02
00
e1
f2
f9
11
11
17
09
03
0b
05
09
f2
f0
09
1f
fc
f3
f7
d1
eb
01
07
fe
ff
fe
df
f0
ca
d0
dc
f9
ff
09
11
0d
03
03
03
0e
11
15
0d
06
03
14
18
ff
dc
f3
21
f5
04
02
ea
f9
c7
c0
cd
f5
0f
08
10
0c
06
0e
0a
e9
fd
0e
11
04
08
0e
1e
23
03
09
f3
ed
ff
16
1f
db
d2
de
e8
03
17
02
15
07
13
0c
08
fd
fb
0f
0c
13
0c
11
15
07
29
07
e8
f7
03
1e
14
fa
d9
dc
f7
15
12
0e
15
16
16
16
0b
0f
1c
1c
24
1c
1b
1c
14
0c
04
fb
0a
0b
0a
19
11
fa
f5
e6
f4
08
09
02
0c
14
20
1f
23
1e
20
15
15
12
19
16
11
1e
0d
fd
1d
02
0c
15
fa
df
fa
06
fe
0c
06
08
0c
0e
19
1b
13
0a
00
07
1f
0d
07
02
19
20
08
06
f7
16
05
20
08
fa
0e
0d
05
05
09
0f
07
0d
0c
06
ef
e4
e5
fc
05
f7
fd
fe
0d
01
10
09
24
1e
08
12
01
fd
14
03
0e
fd
ff
05
f8
00
f6
d8
bd
c0
d8
f3
f9
ee
e3
e9
ee
03
0f
08
30
f2
f9
1a
2c
f7
05
fb
0d
07
0a
06
01
f0
e5
cb
c7
cf
dd
f4
01
e8
e5
d5
d2
f4
ec
e8
18
e4
fe
0b
2d
fb
fd
f8
01
0e
00
fb
f8
e8
dc
e6
ec
dd
d3
ef
f2
e2
de
da
d2
dc
e8
d5
02
fd
12
f3
1e
ef
10
0b
fe
12
00
ee
f5
d5
d8
e4
eb
f3
df
e0
d7
dc
d5
e5
e4
d7
fd
df
1f
0a
16
e9
1c
ea
05
1a
f2
fd
f7
f8
f2
e5
f2
ee
db
e0
ea
da
d9
db
df
ed
d0
df
11
ff
2b
10
f2
ea
ec
ed
dc
f8
f1
e7
f6
f1
f5
ed
f2
ee
ef
e8
ee
df
d6
e5
e2
f8
e1
ea
ff
11
27
19
01
eb
de
ef
db
e9
e9
f2
f1
f0
01
f9
f4
f5
ef
ee
e9
e5
e6
ed
ef
ff
fd
f7
fe
2d
26
1b
00
ef
d1
ec
f4
eb
eb
01
f3
f9
f5
ed
fe
fa
ef
f0
ec
ef
ef
ee
ee
f8
04
f8
f6
18
39
1c
01
00
15
e7
06
f7
fe
fd
fa
f2
f3
06
ff
00
f3
f4
fb
05
f9
f9
09
08
12
fb
e7
26
2d
13
01
fa
1f
09
10
0c
14
06
0c
0d
09
11
17
15
11
14
15
10
05
0d
12
1d
29
10
eb
22
2c
0d
f8
09
24
23
28
14
0b
05
0c
12
10
1a
18
22
2c
24
12
11
1c
21
15
22
30
2a
2a
1a
27
08
f8
e6
1e
22
16
1f
12
06
15
11
00
0e
11
15
13
17
0c
1c
1e
17
02
0c
26
2d
06
13
19
06
02
03
ec
22
2b
24
1e
0e
03
13
10
14
13
14
0e
14
14
15
14
0f
08
10
2a
2a
02
1c
14
03
fc
fd
e6
06
10
f8
09
0f
1b
17
04
06
15
20
16
1e
10
2c
38
22
03
13
19
14
37
1d
08
ff
fe
02
e3
1b
0c
e7
10
2a
2d
23
03
0d
1f
23
20
2a
27
2f
23
31
1e
22
2d
18
12
f5
07
fe
00
ff
03
fc
e3
e0
f6
18
1f
f6
f0
01
0e
0f
16
20
f9
e8
fe
32
14
08
15
09
02
11
04
02
01
03
fe
04
05
16
2a
2b
31
2b
36
27
24
4b
36
0a
22
40
f0
fa
09
fa
f9
04
ff
02
01
00
03
04
04
ff
ff
04
fe
00
fd
ff
fe
03
fb
fb
02
00
00
fd
fe
02
02
fc
fd
01
fc
fe
fd
fc
fe
03
fc
03
fc
fb
f6
fa
f3
f7
f3
ee
ed
ea
eb
cc
c6
ca
e7
dd
dd
ef
ed
f6
03
fc
fd
fd
ff
02
01
e1
de
02
f9
f4
f0
cc
c9
e5
f4
f4
eb
cc
e5
ed
c8
da
d5
d3
ca
d4
db
ef
01
ff
04
00
e2
da
f4
f5
e5
e4
d0
bd
cd
fc
0b
db
de
ce
bc
e7
d6
c1
da
e3
e2
bc
cc
ff
05
03
fd
06
df
0a
f8
0a
d5
d1
b2
b1
ba
de
e7
e9
e0
e7
c4
d6
d4
d0
d8
f0
e0
e6
f5
f8
e9
d5
ff
01
ca
fa
e5
ff
d5
de
fc
ff
01
03
fd
e3
f1
de
cf
d5
ca
cb
e6
e2
e9
ec
db
dc
e8
f5
00
e1
fc
09
fc
10
fb
ef
f5
f5
00
06
f6
f7
fc
f0
e6
f1
f5
f8
f9
09
0f
01
0b
f9
1c
f3
01
e8
0e
1e
f1
fe
fb
f6
f0
0d
fd
00
fc
07
00
fc
05
0b
02
08
10
18
1a
16
04
03
18
f5
da
04
fb
04
f3
09
f9
00
00
00
ee
f7
00
0b
15
0c
1c
1c
1f
16
2a
24
14
1e
2a
1e
e8
f2
17
2c
f4
e0
f0
01
02
f7
f5
f7
f4
05
14
21
21
1c
15
1c
27
29
28
16
0a
09
31
23
0f
19
16
1b
17
dc
e0
e1
e8
ef
f0
ec
f5
18
26
32
23
23
21
08
1d
1f
1d
1a
03
fd
2c
4a
26
f0
26
f2
26
13
ec
d2
ce
db
f0
ef
06
1f
25
1f
13
1d
15
09
0b
f8
fb
08
0b
08
17
2e
20
17
02
10
23
11
de
c9
ce
f3
fe
fe
17
23
1a
1f
0f
17
01
f3
f6
e2
e1
d7
e3
dc
e6
35
3f
1b
f7
fc
27
06
e1
da
eb
07
fe
0f
1e
15
15
0e
11
0a
09
f0
ec
d8
d9
ca
bc
b8
fc
22
00
d9
18
15
1c
0c
ec
fa
e9
f8
04
19
14
03
08
04
01
0b
0d
0b
fd
f5
ef
d8
d8
df
fa
f6
b6
e4
19
01
e5
0e
ff
fa
06
f3
07
0e
1e
13
13
f4
f6
10
0c
1f
0d
eb
f4
f1
eb
f0
e6
d9
c6
d8
fa
ea
d7
f1
05
fe
ea
f3
09
08
19
1b
16
07
f9
15
08
10
fb
f1
f8
f1
d9
dd
e7
cc
d3
d3
ff
0f
dc
ee
06
00
02
f8
fd
12
23
1f
06
07
16
26
0e
04
f3
e5
ff
e3
ec
f4
f7
e8
f3
db
1b
0d
f8
df
f3
f7
00
05
fc
0b
0e
1a
13
19
1e
13
ff
f8
de
ea
0a
e9
e1
e0
d6
df
2a
fb
f1
26
15
cc
e4
f1
fe
05
f8
f3
e9
fa
0e
16
0d
01
f1
f2
e3
ed
f0
e0
d8
c3
c1
db
ec
10
ff
fe
df
be
d5
ec
f0
e9
f8
f2
eb
fb
0b
14
05
f0
f7
f3
dd
e4
d6
d3
d8
eb
ef
f4
fd
01
f2
f8
c8
ee
f7
eb
e9
ea
f4
f6
eb
fa
01
04
f9
f2
ec
eb
d5
d6
dc
d8
d8
fa
0f
eb
d2
ff
f2
f1
d0
fb
fa
d8
fb
ff
04
09
05
fc
07
f8
fb
ef
e1
f4
e7
d8
e0
d4
dc
11
28
f7
fd
04
00
ff
cc
f7
0b
fc
02
03
02
0c
0b
fd
f9
eb
f3
e8
ec
f1
e5
e4
ea
db
f2
06
21
0b
13
fe
01
fc
e7
07
07
14
f3
00
0a
fb
f6
f8
f2
ff
f7
ee
e8
ee
f2
e3
ee
e6
02
2b
27
f3
f6
04
04
01
01
24
0e
fc
e8
fd
fd
fe
f2
0a
f7
f8
fc
f9
ff
08
03
03
03
23
3f
41
47
f2
f2
fd
fd
fd
01
0f
fa
f0
f5
f8
f8
12
05
11
21
27
1c
1e
22
1b
16
38
25
1e
28
fa
01
19
04
04
fb
fc
fc
04
15
1e
f2
ef
ec
0d
22
00
f9
24
16
f7
1f
3b
1c
fe
06
1f
1e
13
fc
ff
01
fc
fd
02
04
fe
02
fc
fe
03
ff
02
fd
01
0e
0e
00
00
03
00
ff
03
00
fc
fd
03
02
fe
03
02
02
00
02
ff
05
11
1a
19
21
2c
39
2a
30
3e
32
2b
ed
13
33
34
31
1b
1b
0c
00
fd
03
03
fe
00
0f
f9
1a
1e
21
41
3b
1e
2e
4a
3e
38
4d
52
2b
25
24
37
32
3d
39
19
0f
fe
03
02
01
03
1b
fe
1e
1b
37
20
0e
28
1a
11
ff
0c
05
fc
06
fd
00
0c
fb
16
20
34
25
ed
04
03
04
fe
1c
e1
24
2a
28
21
36
29
28
fd
fd
ee
e2
da
f8
09
07
1f
11
0c
10
0a
f9
e7
f1
21
fd
fe
2d
0b
40
1a
1e
20
17
06
fd
ef
f7
e1
e4
db
dc
f1
07
1d
0f
0c
0b
1a
1a
0d
0c
16
fb
e6
dd
fd
2a
11
19
1b
fd
ef
e8
ee
e8
e4
ee
e5
e3
ed
f7
ff
04
09
10
20
00
08
f2
13
fb
d3
d0
fb
26
14
06
09
f9
f3
e4
ea
eb
f0
fb
06
e5
eb
f1
f8
00
11
15
0e
05
02
f7
13
14
db
0d
0f
28
2a
17
10
00
fb
ec
e9
fa
04
03
fb
ea
ef
e6
fe
fa
14
0e
f7
f6
fe
1b
ef
eb
d5
fb
10
10
12
ff
10
02
f8
f4
f6
f9
00
03
01
f1
ef
f4
fa
fd
0a
ff
f4
df
e0
d9
e3
ec
f3
ee
03
10
02
fc
08
fd
01
05
07
03
02
07
00
f8
03
0d
05
fb
0b
07
e3
ca
c6
e4
fc
e6
08
e1
d9
f6
01
07
07
ff
11
13
0e
1c
0d
0b
00
06
05
0d
0f
16
0d
f3
de
be
ba
f1
de
f5
f7
ef
cf
ef
fc
19
05
ff
0e
05
1d
23
11
03
03
16
17
10
0e
05
1d
fd
01
db
a7
a8
d8
10
05
e4
cb
d5
ed
04
f2
00
09
04
0c
07
0e
0e
17
10
14
14
07
fd
0e
05
fa
c9
a1
b3
fa
f2
fe
e4
e5
d3
e8
de
f6
04
03
ff
11
fd
09
13
10
11
00
fc
f6
e4
e6
de
df
da
e0
e7
f9
eb
01
24
f2
e1
ca
cc
fd
03
03
f5
ff
fe
17
2b
0c
11
fa
eb
f1
de
de
d9
d2
da
0e
e5
f8
0e
fd
17
fb
e2
cb
e0
f0
ff
ff
f2
f7
fd
0f
26
11
0b
f1
f7
ef
e5
e0
d6
df
f1
1e
f3
01
01
02
f2
00
d1
d1
d0
ef
00
ec
f1
ee
06
11
26
0d
01
f2
f2
03
fa
f3
dd
e2
fc
e0
df
0c
e0
07
e7
09
cf
c5
cf
e8
ed
fe
f1
f1
19
1b
14
02
fb
07
06
f7
f8
f0
d7
e5
ee
12
0b
17
0c
df
e1
01
ce
a0
cd
e8
f0
00
06
09
04
08
0e
0b
10
0c
05
f5
fa
ea
e8
e6
f6
10
08
17
04
fc
eb
d7
bd
b3
e0
fb
f2
fb
04
13
14
03
19
19
10
0b
12
03
08
f7
df
e1
0e
07
0e
08
1b
08
ec
d9
d0
d6
f8
fe
02
06
05
09
0b
0d
12
0d
04
13
16
0b
04
f3
fc
ff
10
18
f0
fd
1d
12
ff
f4
df
fa
f6
f0
f9
f0
f5
fa
ff
03
0a
0c
13
0f
19
18
0d
10
fd
fc
2a
29
09
f9
ff
fc
06
e1
cf
e9
f2
ed
ef
f2
e9
eb
01
08
05
0f
1d
1a
32
2e
0d
09
13
19
1c
19
10
fe
fb
00
fa
d5
cc
f0
f6
e1
f1
f9
00
fd
f2
f0
fe
fd
12
f9
17
1d
04
08
12
18
01
2f
02
02
fd
ff
10
ea
c9
b4
dd
e0
f7
ee
f9
f5
03
08
02
f2
f5
fe
0a
e3
fd
05
fe
0d
ea
10
f0
04
ff
03
00
ef
e3
d6
e4
05
0d
e1
e4
ec
f6
d9
f4
08
05
fc
13
de
dd
e6
e3
0a
04
f6
03
03
04
03
04
00
f0
ec
15
16
14
0e
ef
0b
18
f6
fc
2a
f3
e1
1b
1a
08
e6
ee
f9
fc
03
fd
ff
fd
01
04
fd
fd
02
fd
02
03
03
01
04
00
04
ff
fe
01
02
02
03
00
02
03
fd
ff
03
ff
04
02
fe
04
fe
07
08
08
13
0e
08
11
1c
18
11
0c
2c
19
29
0e
28
2c
15
10
10
ff
00
fd
ff
02
ff
08
10
18
11
1b
28
20
18
01
eb
fb
0c
f9
f9
fd
f0
03
1e
25
29
2a
0f
15
11
04
03
fe
02
1d
0b
0a
01
fe
01
e8
f1
da
ce
db
f7
f0
ef
f7
fa
02
ff
e1
12
1f
12
f8
ee
e6
fe
fe
fe
24
f2
07
01
01
f8
09
f4
fc
f8
00
ff
06
0a
0f
0b
0c
11
f7
ed
ea
e9
d9
ff
14
15
ff
fc
26
ee
fa
f0
fb
03
f0
fb
fb
02
f4
f6
f8
01
f6
f9
05
0d
02
1c
0e
f5
e8
ea
0d
f3
fd
e8
eb
fd
ef
d7
fa
ff
fe
eb
fb
07
fc
eb
e2
e1
eb
fd
0b
13
0f
15
13
0d
d6
fb
ed
06
02
e0
e4
dd
f8
e7
f5
f6
e4
e7
ed
e4
f0
f0
e8
f8
fb
02
0b
0e
11
1d
23
1f
f1
ea
f1
12
15
06
ef
10
09
ef
01
f4
e4
da
e1
ea
01
0a
05
02
14
16
0f
12
10
1e
1e
18
f9
e1
f9
16
0f
e7
fc
18
fc
e8
fc
ea
e2
f5
02
fe
fe
13
13
10
14
0b
f5
06
0b
05
03
16
15
04
f5
ed
12
f9
f1
f3
f5
f0
fc
ed
ed
04
0d
19
14
22
24
22
0c
fd
f5
fb
fd
f3
02
27
15
e4
fc
18
fe
f8
fb
d5
f4
06
fa
0f
0a
06
0a
0d
03
21
2d
0c
ff
ec
ec
f4
08
fa
07
32
3c
0a
01
25
f7
f8
f4
eb
17
07
16
1c
08
13
fb
f5
f9
15
1d
11
ff
09
f0
f6
f4
0f
18
34
31
0f
07
21
0f
f8
04
df
0c
fa
06
04
14
0a
ed
f6
fa
16
1f
0d
07
02
f1
f3
ec
f4
fd
08
0d
0c
17
24
f3
f4
f1
e0
f6
fa
fa
f5
01
02
f3
07
05
15
0b
05
f8
05
ff
f7
e7
fb
f1
ed
01
17
22
1a
f3
f9
f1
d7
f6
04
fc
01
04
0a
fe
08
0c
11
11
ee
ef
fa
ff
f2
ee
f3
db
dc
e9
fb
de
1e
f0
01
f6
dd
f8
0c
03
08
12
1d
1c
18
0d
0b
fb
e9
fb
ef
ee
ee
e2
e3
e7
f7
e4
ea
00
ef
ff
05
e1
ec
f7
02
07
fe
10
20
25
0b
0a
f8
f6
ed
ef
ed
e6
06
fa
f3
f6
07
01
e1
0a
08
2b
00
f7
f4
00
fb
01
09
0c
20
0c
ee
dc
e7
f1
f1
ed
f6
f4
f4
fc
fa
0b
09
eb
db
f8
12
04
19
e6
ea
fa
fc
06
04
03
0e
f4
d3
d3
ef
ef
05
fe
f5
f7
04
15
1d
36
22
e7
d1
04
1a
04
21
fa
fc
01
03
0e
14
05
fd
01
e6
ec
fd
02
fe
f3
fb
01
0e
1c
30
34
15
f1
f0
09
08
17
08
07
20
2b
13
23
24
05
0d
0a
fd
09
10
08
03
f9
09
0f
0b
1a
1b
18
f5
ee
04
eb
ff
1a
18
19
0c
20
2f
29
17
11
1d
0f
0a
0c
07
0e
0a
08
0d
11
01
04
fc
f9
fa
ec
18
fc
fd
fc
02
24
e2
e3
fe
0b
08
11
1c
f8
06
10
0c
fa
0b
16
11
fc
f2
e9
e6
00
03
fc
0b
06
ff
04
02
20
ec
c7
e4
f1
ed
04
0f
16
0a
07
f5
eb
f9
f6
ec
e0
de
e3
db
df
0e
0b
ef
fa
00
01
03
0b
f5
cb
eb
05
fc
06
f7
ee
f5
f8
f2
03
f4
05
f2
e5
05
fb
d9
cf
f4
fe
f5
f2
fc
02
03
01
fa
14
13
12
21
1b
09
05
11
26
12
31
2a
29
15
03
05
1b
f5
f1
22
20
ee
fc
03
04
fd
fe
02
04
fe
17
1c
18
14
1d
1f
1f
03
32
20
0c
00
1c
1f
f5
de
d7
e0
ff
fd
02
fc
04
fc
00
fd
fd
04
ff
02
fe
00
fe
04
fb
00
04
fd
ff
01
04
00
fc
fd
01
04
fc
fd
fc
fc
00
03
fc
ff
fe
fe
fd
fa
02
fe
ef
f1
e1
db
26
0c
d6
d1
e7
fd
09
02
f1
f9
fd
04
fc
fe
00
04
04
fd
f1
0a
02
fb
ea
03
18
0d
23
2c
1c
2c
17
00
e3
ef
ec
da
eb
ef
04
08
01
fc
fd
fd
1e
23
e9
dc
db
dc
c9
f3
e2
d6
fa
03
fb
f8
f7
ed
d0
e7
c5
d3
db
dd
f0
e8
eb
00
01
fd
1d
e9
f5
fd
f1
ef
fb
f1
e9
e8
f7
03
fa
f2
fb
fd
f0
f8
f3
f4
ef
e7
d9
ae
cd
de
01
00
22
e6
e0
08
f7
f5
f1
e8
e5
e8
10
ff
0b
08
fc
f5
ef
e5
dd
01
fc
f1
e1
bc
e5
f0
fc
ed
eb
f9
e8
e9
f8
fe
f4
fa
fb
ff
08
f6
02
07
0a
03
f4
e3
ee
fa
e4
d9
b6
e7
fd
13
04
f5
f9
f0
dc
dc
e2
ff
ef
0b
0d
ff
f5
f8
04
0a
17
0e
fe
f7
fb
ea
ce
a7
97
b4
04
0f
03
ff
e3
f1
07
f8
f1
0c
07
05
0d
f8
f7
fc
10
0f
04
09
fc
02
f6
d4
b6
96
91
be
0f
ec
09
fd
0a
f8
e0
e1
f5
03
fe
fe
f7
fb
fe
0e
1b
2f
1e
02
03
f6
df
cd
bb
b6
b2
e2
18
21
0b
10
13
ce
cc
e8
f3
e9
ec
f1
fd
03
ff
11
26
45
2f
0a
ea
e1
c4
d0
d0
d8
e4
0d
13
29
08
19
1e
cc
cf
f3
f2
ef
f7
01
ff
08
05
16
32
3f
36
f9
d4
d0
cf
de
ed
f1
ea
08
fa
f8
01
04
0b
d6
f4
fa
e7
11
18
05
f9
f9
0b
1c
25
3c
30
f4
d8
d0
d4
ec
de
d1
eb
fd
e7
00
0e
02
fe
f5
f9
11
ed
fa
fa
02
f6
01
fd
18
26
33
20
f3
f5
e0
05
0a
fe
ff
e4
16
12
21
fc
fd
1e
11
22
21
ec
f2
f6
fc
ea
f1
04
1a
2b
23
0c
fa
f4
fa
f3
01
06
29
19
22
24
14
fd
ff
20
17
20
f6
db
02
05
f4
e1
01
0a
1d
29
16
ff
ea
dd
d8
f0
f6
10
21
0b
1b
27
16
ff
0b
21
15
15
fe
eb
ee
fe
ff
ed
00
0f
0a
19
0a
04
e4
e0
da
03
f7
fe
01
0a
17
1c
1f
fc
0d
0b
f4
e6
eb
e3
d6
d3
ef
09
06
13
0a
15
00
f2
da
e8
fb
0a
00
0b
0a
13
1c
12
17
eb
13
fe
db
e0
d4
d0
e4
d8
01
02
09
14
0a
fd
f3
d5
e8
f7
f6
07
fa
05
0c
22
2c
34
27
09
03
07
df
ed
b1
de
f6
ea
05
0d
1c
09
13
fb
f2
f2
ee
f3
fa
02
f2
fc
03
17
25
2b
24
fe
fd
f3
e8
f6
b1
e6
e5
f4
fb
15
17
1b
f4
ff
03
08
06
02
ff
fe
f7
ff
ee
04
fe
29
13
18
f8
f6
06
fd
d8
ea
f0
f1
03
0f
00
fe
ef
00
fd
fb
fc
fa
fc
fc
08
f8
f0
fe
09
26
04
1d
0f
f9
04
f7
0e
ea
e0
fc
04
fb
ea
e2
fd
06
04
05
02
03
07
08
0f
00
e8
ed
fb
1a
ff
02
00
03
df
f3
fa
e7
e6
ed
0b
08
02
0f
0c
07
01
04
04
f9
0b
fe
02
07
e7
e0
ea
17
fe
fe
fd
fa
e0
03
03
f7
e2
e6
f1
f8
03
05
f7
06
fa
e9
ec
fe
13
00
0d
18
03
04
17
15
02
02
02
02
15
2e
04
fb
10
08
ef
d8
f6
d8
d4
e9
de
c4
dd
e8
d6
f0
f0
fb
f5
f3
0e
0e
00
02
00
04
fb
ed
1b
24
29
24
fa
ed
f9
e0
ee
dd
ed
d0
cd
e2
d8
e0
e6
dc
e3
00
03
00
04
fe
04
fd
04
05
09
0e
0c
ff
ed
02
06
e2
e7
c6
e3
ef
eb
e2
f9
00
f5
fc
02
fd
02
03
00
01
03
fc
04
05
04
fe
03
fe
01
04
01
07
04
fe
04
fc
01
00
ff
fc
fd
fd
01
02
fc
fe
fc
03
fc
ff
ff
00
08
07
08
0a
08
05
08
16
14
e1
f5
1a
28
1f
37
2a
12
11
08
02
00
fc
fd
fe
fd
03
0c
18
12
09
09
08
f4
f1
07
04
f7
e7
e2
f7
07
07
1d
22
39
40
12
f6
f6
ff
03
00
fc
e2
0c
20
1e
1b
1a
0d
e8
df
e0
e8
e5
0a
0e
00
04
25
16
23
07
0e
4b
24
fd
14
ff
02
00
e0
f3
f4
17
06
0b
d0
d6
d8
dc
e0
e5
fa
06
fc
0e
07
06
09
10
1a
29
21
1a
1c
28
03
fc
eb
0d
ff
f5
ec
fe
e0
d3
dc
e7
e5
f7
05
08
04
21
1e
1e
1e
05
06
06
12
24
2c
1c
02
e9
0d
e8
d6
ea
e8
da
e4
d6
d6
de
ec
fb
09
17
15
18
0e
1b
24
04
13
0e
23
3b
08
fc
04
d4
04
e8
dd
f0
d8
d3
db
f1
e8
f3
ed
f1
06
20
16
10
12
14
0a
f5
fb
09
2d
37
f3
06
00
ea
fe
e5
e9
f5
09
f8
f8
04
fe
00
fc
fd
ff
05
11
00
02
fa
01
01
f7
f3
1a
1b
f3
05
f0
fa
e1
d2
e9
f4
02
f7
f9
f9
02
09
05
fb
f4
f4
f6
ed
e7
ee
e9
ef
ec
f5
05
f9
f9
e2
f1
fc
ea
eb
e8
ec
f1
f6
ef
f6
f8
0b
1b
04
09
fb
fc
f2
f6
ec
f0
ea
ee
fa
eb
e1
f6
de
ef
f8
f8
d8
e3
f2
f8
f3
fd
e9
f1
00
1b
2a
1a
0e
13
01
06
f2
f1
f9
e2
da
e3
df
22
f0
fc
00
f7
d7
d8
e9
f7
f0
ef
ef
00
1b
1d
43
27
26
13
0e
fb
fc
00
fa
e5
e0
dc
e1
0d
f3
e3
0b
d5
d8
d9
c2
d4
eb
ec
f6
09
19
2c
2e
21
27
0d
fd
f4
fd
01
f0
f8
e3
f9
08
04
fb
19
0c
f0
e6
d6
cc
d7
de
ea
f6
03
15
16
19
0d
0f
06
f2
ee
f1
01
f8
ed
db
f7
ea
e5
f1
0a
15
0a
ea
f9
e5
e0
f3
fd
e7
eb
ed
11
ff
02
06
01
ff
06
ff
0f
02
de
e3
ff
f3
d4
f8
ee
10
f8
02
0e
ff
fa
fe
f9
dd
db
e3
f1
e6
f0
07
fd
04
14
04
08
e2
df
ea
e3
e3
d7
fe
fe
08
f4
05
20
0d
01
0e
fa
ec
f6
ef
e5
de
f1
0b
0c
24
17
0b
fa
eb
d4
f0
e8
ca
e1
18
e7
02
06
fa
28
1d
1b
09
0c
fc
00
fd
d9
de
f4
10
27
29
18
02
dd
c2
bc
cd
d2
da
e4
e1
ef
e5
14
17
25
2b
1d
01
0c
06
11
fe
ee
e2
f9
0e
16
1f
22
f5
d5
c7
cb
d6
e7
f0
eb
e1
fb
05
09
0a
1f
2b
10
01
01
0c
13
05
fa
02
ff
02
fb
11
f9
da
bc
c9
db
dd
df
f1
e3
e3
e9
f4
e9
f5
02
07
fc
04
02
0a
07
0f
0c
0e
f5
00
f3
01
e2
c5
b9
bc
db
e3
dd
f8
f3
06
e7
f7
e6
0c
f3
dd
f2
ff
f6
02
15
22
22
18
09
06
f3
e5
de
d3
b7
ce
ef
fb
0a
fc
e8
07
03
01
13
28
06
0e
08
0d
18
01
09
0d
0f
0e
0d
04
f4
de
ee
da
de
e2
e1
07
09
f3
e5
01
05
04
fd
1c
13
16
08
11
17
0a
08
0b
14
12
02
04
17
f0
10
f5
ee
d8
f7
09
02
f7
f8
fc
01
00
1a
fd
de
ee
f0
fa
f4
05
06
ea
df
e0
e2
ef
f6
11
19
15
1b
12
2e
04
f0
05
fe
04
ff
fc
fd
15
17
13
fe
f5
ea
02
fe
f0
f3
e0
ff
e9
f1
12
1d
06
05
00
fb
f7
00
ff
fe
04
01
03
04
02
fc
fd
fd
f6
f4
ed
d0
ec
fb
f2
0e
1e
14
fb
e1
f0
fc
f7
fb
ff
00
fc
02
fc
01
00
00
fd
fe
ff
fe
fe
01
04
fe
fc
f9
ff
02
09
03
01
03
fd
fc
04
02
fd
fd
01
03
04
01
03
02
02
f9
f4
f6
f3
ee
f1
e1
e8
e1
e7
ed
fe
2a
11
e2
d0
d4
eb
e8
ed
fc
fe
ff
ff
fd
01
fa
0d
00
ec
e1
e0
f4
0f
08
f7
f7
f6
f0
cf
d2
cf
ce
c6
cf
da
df
e1
11
18
fd
04
ff
00
0c
00
d5
ef
e2
f8
11
0c
16
26
21
16
1f
16
1b
09
e1
d0
e8
d0
d6
fd
05
17
e5
fd
fc
06
20
0f
e9
f4
0e
22
3a
3e
3b
3e
38
18
10
1b
2e
29
18
02
04
e7
ee
e2
fb
19
22
f9
fd
ff
f9
1c
f8
e8
0e
2a
23
1f
16
22
1e
1d
15
20
27
1b
10
10
0b
13
0d
e6
ed
2a
07
e6
ff
1e
07
0e
fa
f9
1c
1e
18
1e
12
04
05
08
12
1c
1e
1a
0b
f6
f5
04
05
05
e8
0b
e9
e9
fc
26
f7
18
30
0e
12
13
1e
10
09
fd
07
13
15
1f
1e
14
15
02
f1
f8
0f
0f
f4
ee
f8
f0
20
04
10
2b
2b
ff
11
17
0b
0b
0b
f4
13
25
2a
2c
2e
19
11
17
0b
05
23
18
f9
11
40
1f
fe
d8
15
18
0c
0c
16
03
ff
07
f7
ef
0a
35
2f
1a
24
18
16
1a
20
24
3a
46
1a
37
0b
eb
01
e1
0a
2b
05
0c
10
f7
f3
f2
f4
f7
16
26
16
f5
fb
15
15
11
16
17
3b
38
06
09
ff
0d
f7
0b
fb
23
09
fb
02
f3
ed
f1
02
16
12
10
fb
dc
d2
05
08
0f
ff
f6
00
f8
08
29
26
f4
fa
0c
fb
0e
e8
f1
f4
f0
e9
fc
07
07
18
07
f2
d9
dd
08
09
12
08
f1
d7
e9
0f
f7
e3
d2
0b
24
ea
ff
cc
d7
f2
f4
00
15
03
07
07
02
f9
ee
e9
07
20
13
05
e2
db
e8
df
00
07
0f
e7
15
e6
d2
ca
d5
ef
06
03
0f
0e
12
0e
13
0d
fd
f1
0d
13
0d
fb
f0
d8
f0
fa
14
1a
02
e5
16
0c
dd
df
f6
f9
0c
08
17
0e
10
10
10
10
01
0d
0b
06
00
fe
f5
f9
fa
13
1f
0d
24
0a
19
2e
07
f8
00
06
02
fa
0c
0d
12
1c
0d
08
0f
17
18
01
fd
06
1d
12
13
0a
18
11
27
fc
06
24
0c
1e
0c
08
fd
f4
f5
f9
0e
0d
08
04
0c
29
23
f9
fc
05
15
1a
08
09
1b
0e
31
db
08
10
0e
0f
18
13
fd
f8
e7
fa
fb
f7
f9
fd
1b
1f
0a
f9
08
05
0f
1f
0e
12
12
fd
f9
02
e4
ec
19
17
1e
13
04
00
f7
02
eb
ee
fe
02
12
1a
1c
0e
01
07
18
23
1c
0d
15
2f
f9
03
1c
ff
26
1c
13
0e
1f
0a
fc
02
f3
f0
03
08
16
17
13
11
06
19
1a
15
10
e9
e9
1c
f2
ec
0d
34
32
08
ec
15
1b
fc
06
fa
fd
ff
09
0c
11
10
12
05
06
06
fd
11
07
df
ef
29
03
f1
09
3e
17
02
0d
1c
24
1a
15
15
25
10
12
12
0c
0c
05
fc
06
05
05
21
11
f7
fb
e6
02
00
00
33
1e
00
f6
0f
31
2b
28
23
2d
1f
1a
10
15
0e
08
00
ff
03
0e
14
1a
fa
02
d8
ff
02
fe
04
07
0d
ee
09
13
18
12
01
0f
21
20
1f
1d
0b
02
fc
f9
eb
ff
f7
ef
10
1d
02
04
00
03
fd
d5
fc
08
25
20
1a
08
06
00
0e
10
07
06
01
f0
ed
ec
cc
aa
ba
d7
de
fe
07
00
00
01
01
f7
09
fe
fb
09
17
0a
16
04
fd
ff
02
f9
ec
e5
fd
e6
cf
d3
cd
00
08
ff
02
fc
fc
fc
fd
ff
ea
eb
11
1c
1b
07
e3
e5
fb
f5
05
17
fd
dc
ed
0d
f0
ed
de
ff
fd
fe
fd
fd
02
fe
01
04
02
00
04
fe
04
04
fc
02
0a
09
00
03
ff
01
ff
fc
00
01
fe
02
fc
fd
fd
00
03
02
04
04
01
0a
0a
0a
19
16
1b
1c
29
28
f8
17
1b
25
0f
28
24
11
0e
09
ff
02
fd
03
01
fc
0e
22
29
fe
00
15
35
17
0e
15
20
08
04
10
03
ee
0c
16
1b
2a
1f
fb
eb
ea
fc
03
ff
fc
ea
1e
1c
03
11
ee
01
1f
18
1e
07
1c
10
08
04
0c
04
ff
e5
eb
ee
fa
f5
e2
fa
01
fc
fb
e8
f0
15
ea
e9
e9
ea
18
10
fd
fd
ff
fe
01
05
05
f1
00
f6
f8
f5
d7
d4
e6
06
2a
00
00
dd
e6
ec
bf
ed
00
08
08
03
05
00
06
0b
fc
fc
ff
f3
f5
e7
eb
e7
d9
e5
f2
fb
f1
fe
eb
06
df
f1
0f
10
12
03
fa
fe
0f
18
0c
f9
e3
d9
e9
e0
f6
ee
fc
07
01
d0
e0
db
f7
09
d2
08
00
ff
0a
12
14
03
13
16
16
0b
04
e9
ed
d9
f8
04
f9
f5
07
05
17
fc
f3
e6
04
28
00
13
11
00
10
0e
0e
06
1a
12
12
1c
0a
fc
f2
f4
ff
00
fb
0a
01
fa
15
0d
f7
0b
0c
17
fe
11
00
07
12
f9
07
05
0a
f8
0b
11
13
f5
e1
f5
0a
06
10
17
10
0e
20
2c
08
fc
ff
12
09
28
f5
11
0e
ff
09
ff
0c
07
0c
13
11
fe
f5
fa
1c
18
11
17
25
29
25
3b
df
f3
1f
0f
2b
ee
f8
ee
ff
0b
17
fb
0c
fd
09
08
0f
08
ee
fc
09
09
0d
0c
1c
26
32
3a
ef
17
23
06
22
eb
24
db
fa
01
0c
02
0b
ec
02
0c
15
f8
de
f8
0c
00
0c
0e
23
35
3c
6a
0d
f4
1a
03
26
13
1d
e0
f9
09
fe
04
14
11
0f
0d
fc
e6
f1
ef
f6
07
0f
11
19
27
39
3a
26
fd
f3
05
e4
12
f2
be
06
09
08
f8
01
12
26
0f
04
fd
f4
e8
01
fe
07
0b
13
16
15
1f
07
ef
f6
03
fa
fc
e8
d8
f3
eb
04
ef
03
0f
0e
09
01
fd
f2
e6
fc
0c
07
fa
02
fe
03
14
fd
bf
fa
09
f6
f0
ee
ea
eb
e5
f9
fe
04
02
0a
10
f1
03
fd
f9
05
07
fb
eb
ec
f0
f7
f0
f2
d3
f9
04
e0
ec
db
e9
e2
e7
ed
00
03
04
17
14
00
07
fc
06
09
03
f7
fa
f2
f9
fd
16
ee
f4
14
db
e3
df
dd
d4
e3
e2
fc
08
11
0d
14
19
00
ff
01
03
fe
fb
e5
ef
e6
e6
fd
10
ec
03
e3
03
2d
18
fc
d6
e0
e8
fd
0a
11
19
21
1a
08
fb
fa
f1
f1
ef
db
e7
e9
fb
fa
f9
d3
e8
e7
01
1b
18
12
d7
e2
f5
07
07
0a
2b
25
29
07
f7
f5
dc
e3
e7
ec
e7
ec
fa
f3
d3
b7
e2
f7
f6
0e
02
1d
d4
ed
0b
09
03
15
19
1f
1a
0a
fb
ee
e0
e4
ed
f4
f5
ee
0a
f3
d1
d4
22
02
f8
fd
f2
f3
db
f8
17
0e
0a
10
0b
17
1c
1b
0c
02
f1
f1
ed
f8
e2
ef
f5
ea
da
f0
08
05
fe
fd
de
c5
c7
e8
09
02
0b
17
0f
11
25
25
1b
11
06
f7
e6
f3
c3
df
f0
fe
d5
fa
e0
00
00
01
0f
e1
ce
ec
ef
dd
ee
07
06
14
23
20
25
19
09
e5
f1
fd
e0
e9
f6
00
0d
10
ee
01
01
02
e1
1b
ed
d0
d1
c1
bc
d6
ed
f8
e5
e9
f5
0f
1c
f3
de
e9
d1
eb
e8
dd
f8
ea
f8
fc
fc
fd
fd
f3
e1
d8
cf
c2
db
d7
c3
c1
ca
cc
af
ce
df
d8
da
d6
ca
dd
f5
06
fe
11
fd
ff
00
fc
02
fd
1d
1e
f9
e7
e8
f9
e6
dc
d7
fd
db
dc
fc
05
f1
01
0d
12
0d
fe
fe
00
fd
fe
00
00
03
fe
fc
04
02
01
ff
fe
00
04
03
0b
0c
09
03
00
00
01
ff
01
04
01
fd
fb
02
fc
04
fc
fc
04
05
0b
14
0f
19
14
1c
2a
33
28
ef
08
4a
4f
2b
2c
27
17
12
08
01
fc
fd
fd
ff
00
10
23
28
14
1c
30
30
29
45
61
3e
0b
2e
18
07
f7
f9
f5
22
22
1d
25
1f
02
fe
04
fc
01
de
18
f7
27
31
18
18
21
15
31
19
1f
18
0e
00
f4
f3
f5
ea
ed
fd
0e
12
fe
11
04
01
fc
e6
d3
15
28
29
16
1f
29
2c
1c
15
03
03
f8
04
ff
ef
f1
e8
db
e0
ea
e1
ef
fa
23
fd
fe
1a
00
2f
f7
04
0b
0c
08
17
0a
14
0f
0d
07
0b
06
fd
f7
f1
e2
df
f2
fc
15
14
19
02
25
07
02
0e
ef
fe
04
f9
0a
06
05
0d
09
07
03
f7
f2
e9
e3
de
e1
e8
ed
e7
07
f2
14
fb
02
f9
f6
21
fe
fd
ef
05
fa
05
0b
fe
fc
f5
fd
ef
e5
e9
e6
e1
e8
e7
db
f5
ff
fa
11
28
f9
04
fd
16
f8
fd
f3
f5
fa
fb
fc
fb
ff
fb
fa
fd
fc
f9
0c
f3
fb
ea
cc
c5
db
01
ed
ec
d4
f9
09
01
0a
f4
f9
f1
f5
f6
e4
ef
f7
03
03
00
ff
04
14
06
f9
ee
d7
ca
c5
cb
da
f2
ec
df
1c
fa
1f
03
f4
e8
ea
e4
e6
f1
f0
fb
ea
f4
fc
06
02
05
f6
f3
fa
d5
c0
d3
e8
eb
0d
df
07
fb
0b
01
fd
fc
03
f2
f4
f1
f1
e8
e6
f7
f6
fc
12
0e
13
02
fe
ef
e4
c0
dc
f3
fb
ef
07
00
05
07
ff
03
16
04
fd
f7
f2
f7
f3
02
0b
09
14
14
1b
11
13
25
ef
b7
e3
fe
18
e4
fc
fb
f9
0c
f8
0a
17
0c
00
00
0b
08
0a
0e
0f
14
1a
01
10
1c
2e
1e
f9
fe
1e
f0
f3
ce
fe
f8
07
0c
0a
12
16
0f
1a
11
17
14
11
14
03
12
0d
09
12
12
08
07
23
26
1b
ee
f9
fc
08
f1
08
04
15
11
1b
19
1d
1a
21
23
18
16
0a
00
12
0c
13
08
07
0f
39
08
23
fe
f8
1a
0b
04
0d
19
11
06
18
1f
26
23
1d
1c
10
0f
13
04
01
02
12
17
15
10
3b
1f
1c
ff
e2
1c
0e
01
f9
fd
07
0b
05
0f
13
1b
1b
0b
00
00
03
ff
08
04
18
16
0f
f7
1e
03
2d
e4
f0
0e
24
05
f7
01
02
f2
f4
fb
f8
15
11
fe
00
0c
0b
05
fd
03
0e
0d
10
01
1d
ed
f5
f9
dd
fd
18
0e
ff
f8
fa
e7
f0
01
08
12
0a
06
0a
08
08
07
05
0e
1b
24
0c
e4
fb
18
ea
ff
09
22
36
17
08
f1
0f
fa
f9
00
0b
08
07
0d
0d
fe
f7
08
01
1c
1d
0a
f7
e9
e2
0b
f4
e9
0f
2d
2d
15
f3
f5
0b
fe
08
03
0b
0c
15
0a
fc
04
16
12
0c
02
f5
05
fb
d9
da
27
03
ed
04
22
2e
17
03
fe
00
fe
04
0f
0a
0a
0f
fc
06
02
ff
fe
02
01
06
f9
dd
d5
db
dc
ff
04
00
32
40
0c
f8
ef
f3
00
fd
f7
fc
fe
fa
f7
f3
f5
fd
1c
17
0b
18
0f
f8
d5
ed
d4
fd
ff
ff
fc
f8
f5
e8
f1
e8
f3
ec
e8
f2
f5
e9
fa
f1
03
01
02
eb
ef
fa
0c
f4
ff
2b
0f
ff
02
fc
24
e0
e8
04
0c
fd
f7
e2
e9
e7
e7
ea
ed
e2
d3
dd
ea
ef
fd
f2
e0
d3
ce
15
0b
00
ff
fc
02
0a
28
24
25
10
0c
e6
e8
f7
0d
fa
00
e6
e7
ed
f3
eb
f8
f5
e4
01
04
e7
fd
ff
02
00
01
01
e6
e6
0c
16
15
05
e1
0f
24
f7
fd
e3
d0
ea
10
0f
15
ef
e8
dd
03
fc
ff
03
ff
fc
fb
03
00
02
fc
00
fc
02
fd
fd
fc
fc
00
01
03
05
ff
01
fe
fc
ff
04
02
00
fc
fe
01
04
00
fd
02
00
02
fe
04
00
f9
fb
fc
fd
fd
02
f7
f6
ff
f9
f8
f9
00
02
fe
02
03
fc
00
01
fc
fe
02
fe
fc
e0
de
ec
d6
ea
fa
ea
d3
f0
e5
de
e1
10
0d
f8
f7
f7
ff
fc
fd
00
02
04
1e
0e
1c
1d
27
18
f1
e6
db
e2
e8
de
d3
e1
ef
e3
07
eb
e3
ed
ed
04
ee
e9
e4
fd
00
08
21
1e
1f
00
0d
10
fe
ea
e8
f9
ec
fd
f8
f9
fc
ef
05
09
f0
f3
0b
0f
03
f9
f5
e4
01
fd
22
fb
17
18
20
15
e4
f8
ef
f5
09
0d
fa
03
f9
03
03
fa
f0
f2
0c
12
0b
00
e6
f8
ff
e9
0c
00
12
0a
0e
0f
13
04
00
1d
19
20
11
01
04
ff
fa
00
fc
f4
13
04
08
e9
f0
ea
02
f2
fd
0a
00
f6
0c
07
01
03
05
0c
12
1d
15
02
08
01
f8
06
04
f9
01
f7
fd
fc
ed
e9
fa
ee
0f
23
f6
f9
05
0a
08
09
0a
03
08
11
11
0c
0b
03
05
fe
f8
ff
07
de
fb
0f
f3
e9
f2
05
1a
26
f1
ef
1d
13
05
01
0e
04
01
04
04
0e
08
0f
00
00
08
07
08
ee
fb
f0
17
15
f7
fe
fa
21
0f
f3
ff
f9
fb
f6
fc
f9
fa
e6
f2
fd
fe
02
0b
07
14
08
0d
22
05
22
f2
f1
fb
f2
e8
0d
04
fd
fe
07
14
ff
eb
e5
ec
f2
05
fd
04
15
12
09
26
21
2c
43
3d
22
0d
fa
fa
fa
07
d8
fa
ea
09
15
10
02
fe
ec
f7
18
12
03
0b
11
10
fd
21
20
20
4f
39
11
03
1c
f8
fb
fe
d2
00
02
0c
18
14
19
1c
0e
24
26
13
0e
09
08
02
09
1c
1a
05
11
04
db
d4
15
f4
0e
ea
c8
ee
f8
ee
fd
1a
33
1d
20
35
24
23
19
13
08
03
04
03
0e
01
f3
e0
c8
ce
fc
f1
0f
fa
f9
d0
ca
c8
d2
f9
17
34
3e
41
2e
22
13
0b
0e
0b
f2
fc
08
07
fc
cc
b8
06
f2
03
14
05
ed
d9
c9
af
b4
c3
f2
18
2e
34
2f
1b
08
05
fe
f1
e2
ee
e9
f8
ef
d9
b1
c2
ef
fc
17
08
e0
d5
c5
ae
a5
8e
a0
c3
e8
fd
09
01
fc
f0
e6
e4
e6
ec
f8
fb
f2
ed
f1
fe
fc
05
1b
20
df
d4
dc
da
b2
8d
81
93
c4
d5
f0
f2
e8
eb
e6
f2
e8
f3
00
fb
de
ce
09
34
24
0b
e2
fb
f8
f8
f1
f5
e7
b8
b2
b2
b5
cd
e2
f0
ee
f5
ee
ff
f5
e9
fb
f3
d3
c4
20
13
27
ff
08
06
0d
28
0d
1c
0c
00
fb
ef
e6
e2
e0
f5
ea
f8
f5
02
03
ec
fc
03
df
e4
00
12
0f
13
0b
2b
08
32
35
2c
2f
21
1a
18
0d
f7
e7
eb
f4
f4
ec
f5
f9
fc
f5
d4
cb
db
0c
06
fd
0e
1b
0e
2a
22
2e
31
29
20
19
1f
11
ff
00
fa
f2
e9
ee
e5
fe
f3
e7
bf
d6
ff
02
18
fc
ff
02
19
1f
1e
16
fe
0a
11
0b
12
10
08
0e
ff
ef
e1
e7
e8
eb
e9
e6
d7
de
00
1c
1a
fc
00
fc
19
20
28
1b
0a
08
05
08
0e
f8
f0
ff
f0
db
d0
d2
e1
ec
fa
fb
f4
f9
e2
0b
02
05
02
02
1e
df
14
39
fc
fc
0f
12
fe
e8
ef
f5
f0
e4
eb
f0
fd
f6
f2
f2
fa
09
f2
0d
f8
fc
fc
04
03
14
29
2c
2a
21
20
19
1a
07
ff
05
29
1b
35
3a
20
0f
13
06
f8
f4
fd
f9
02
01
fc
00
fc
fc
eb
e6
12
13
10
0b
11
1e
1a
f7
2d
38
0d
02
24
27
0c
f9
f5
fd
fd
00
fc
fd
01
00
02
03
03
fe
01
fe
01
fc
04
03
08
06
02
02
04
fd
fd
fc
ff
00
04
fe
fc
00
01
01
fe
fc
fc
05
03
09
11
0d
10
12
23
33
39
2f
f0
0d
33
2f
24
2e
2e
0f
0e
0d
fe
fc
01
04
03
fd
0a
15
19
16
22
27
1a
f9
01
0c
0d
00
0b
06
1a
21
27
12
13
23
2a
1a
eb
e6
fd
02
04
01
dc
0d
09
f9
0b
fa
f2
f7
f9
f1
df
0d
0f
0e
08
0b
1c
0d
f8
11
14
03
eb
e8
15
04
01
f8
da
d9
f1
ee
e6
ea
de
ee
f4
ef
f0
f8
fe
02
08
15
10
11
04
0d
0b
12
f2
e6
00
20
fc
04
e1
f9
e4
d5
dc
de
e5
eb
02
01
ee
fa
07
fa
05
19
13
0d
13
08
07
04
fb
fd
23
19
fc
e5
19
f1
d6
e1
d1
e9
f0
eb
ec
f9
ef
eb
ed
f7
f7
01
f5
12
0f
02
08
fd
08
fb
09
16
ff
d6
1d
d1
ab
d9
de
f4
f4
fd
04
07
ef
f3
fa
fe
ff
08
07
03
07
1a
0b
fa
09
0c
0a
1f
23
05
1b
da
9d
cf
f2
f3
f2
04
08
06
07
01
f5
f9
fd
00
fb
00
10
17
f6
00
26
0a
e7
f8
fb
f1
08
eb
a0
c1
e1
ee
f2
04
0f
10
07
fe
f3
ed
f6
f2
f1
f8
00
fe
e0
ec
38
04
d6
da
00
fc
0c
ea
c6
e8
f6
ff
03
1b
12
0e
02
f3
ea
ff
fa
f7
ec
ef
f0
f7
e4
ff
38
f7
fc
d8
fa
0e
e7
d5
c2
f1
0b
0d
0d
10
08
fe
f9
f6
e7
ea
f3
df
e6
f2
eb
0a
f4
05
12
fb
f3
ee
fe
fc
ea
f4
d9
ef
1d
18
08
10
07
0d
04
0a
f3
ec
e4
e6
e6
f5
05
17
13
02
04
01
f7
e7
fe
14
e4
f3
fb
06
13
1e
19
13
1a
18
19
0c
fc
f8
e6
e4
fa
fc
08
17
20
1c
1e
22
17
1b
17
f3
ef
fb
18
21
0f
1d
1f
1d
1d
24
1d
14
00
f8
f4
fa
00
fc
08
11
19
19
3e
2a
0d
16
0e
f7
0b
18
17
1e
0a
1f
1d
21
25
23
2b
20
00
ec
fe
03
0e
04
00
11
03
1a
35
39
fe
09
f0
ef
e3
13
05
26
14
09
1a
14
20
31
27
0d
08
04
05
0a
03
02
0d
19
12
1b
0d
3b
1d
fd
04
ec
02
05
01
13
23
0e
14
21
34
22
0b
f2
04
0a
05
05
08
06
1b
1d
11
11
0f
fd
e9
24
f9
e6
ed
05
0b
0f
17
1e
19
20
16
00
04
00
03
10
06
ff
04
0b
14
08
09
17
21
fb
d6
f2
f9
f3
0c
12
05
04
16
0b
18
11
06
05
f9
fb
04
0a
fd
06
0d
0e
18
15
19
1d
18
f5
02
fa
ff
19
17
17
03
09
04
09
16
14
08
09
04
f9
f9
06
ff
09
11
0c
09
0e
0f
01
f3
f1
03
fa
f5
0c
08
14
17
12
0c
0d
09
1c
0e
06
ff
06
0c
0e
fa
0b
07
ff
0a
0c
1c
01
f6
f9
26
09
f6
f6
00
18
03
04
0c
01
07
11
0b
02
0d
12
00
0c
0c
05
06
ff
ff
08
09
f6
f3
08
19
07
04
04
f5
13
03
08
10
e6
fa
06
0a
01
05
f8
02
06
0a
f8
e9
f8
f9
f1
ef
ed
e1
10
09
fd
fc
fd
ea
e6
d9
ff
f4
e8
fa
02
02
0d
0d
ff
fc
f3
f4
de
f0
e0
e0
db
e7
ef
09
05
fd
04
fe
fc
18
ff
ea
e3
de
d9
d2
d0
e4
fc
ec
f8
e0
ec
e8
c9
d2
e7
dc
f6
18
20
1a
1b
0c
fe
ff
ff
02
04
21
13
05
e6
e8
c3
ce
18
20
f1
dc
ef
f1
d0
de
eb
ef
e8
f2
f0
ee
fb
ff
ff
fd
02
04
04
fa
f5
00
fd
f8
fa
fa
0a
12
fd
e9
f2
f6
de
e7
d6
de
d2
d8
de
ff
fc
03
fe
fe
fc
01
04
01
02
04
00
00
04
fe
fc
05
07
02
03
04
00
03
fc
00
03
03
fc
04
00
00
00
00
fd
04
01
ff
07
11
13
06
08
10
0e
19
1d
1b
2d
18
11
00
ed
e7
ef
0a
09
fd
ff
03
fb
03
fd
f2
07
08
06
0c
08
e0
cb
d5
eb
e9
e9
ef
01
08
fe
16
0d
ed
e3
e0
f1
f0
0e
04
fc
ff
03
1d
11
06
10
0d
0f
17
f9
fc
02
1d
00
fa
11
07
0b
14
07
1b
0d
06
fd
f8
0a
f2
00
00
01
27
29
13
07
03
0b
0a
0a
0a
0f
0b
06
0a
08
10
05
10
07
0e
16
05
eb
05
18
31
fa
01
01
1b
05
05
0f
06
16
03
07
f2
05
00
04
fb
f5
ff
f7
ec
f3
f8
03
fa
d0
ea
03
1b
f7
04
20
13
05
07
03
1b
14
16
13
0a
0b
01
fc
ed
ea
e6
e9
ee
ed
f6
ea
e4
e6
07
1d
24
fc
02
30
f0
09
21
1a
25
2a
20
14
12
fc
f8
e6
ea
f3
f2
ef
f6
f1
ed
ee
f6
f1
fc
2a
1d
ff
08
02
ef
26
18
14
16
27
07
0a
07
01
08
07
f6
f9
fd
01
07
04
0c
03
12
01
0c
24
16
2b
1a
1e
0d
29
2a
17
20
19
1b
0a
09
0d
0e
0f
1a
0c
0e
11
06
04
0e
13
1d
14
21
4c
3f
2c
1c
05
02
08
22
02
18
1c
11
12
1a
10
1c
31
2a
1e
0f
04
08
0e
21
18
14
28
32
2e
60
2e
0f
f9
05
24
3c
0b
02
0f
0e
1a
15
1a
1c
2e
3e
2b
0c
0d
07
fc
0f
00
14
2a
34
2d
60
35
03
fa
f3
20
1a
13
f9
13
0d
1a
14
0c
10
22
38
1f
04
fb
fb
ee
fd
ea
e6
f2
df
18
39
24
04
0a
06
0e
f7
fd
e7
f5
02
11
08
0d
0a
15
1d
16
0d
fb
f8
fb
02
e4
d5
d1
e9
f4
f5
e6
fd
20
1b
fe
d7
d2
d3
d4
ee
f0
f8
f7
0a
1b
1f
18
fc
f9
f9
fb
fd
f5
e7
f0
f1
ce
de
f2
fe
13
11
e1
ef
db
e6
d1
d6
e0
e6
ff
0f
1b
2e
0d
f4
e7
fd
03
0e
0c
0e
0d
08
ca
cb
d7
f2
13
19
09
0b
e8
da
d6
da
db
d7
ea
00
22
17
02
f9
e5
05
14
12
09
fe
06
f8
b2
bd
f6
fc
1a
12
17
19
0d
f1
e9
db
d3
d2
e3
fc
17
0f
04
03
05
01
12
08
fd
f6
f9
db
a6
ec
0b
24
1b
26
0b
0c
11
04
f2
f3
ec
f3
fb
ff
14
08
0b
09
0a
fb
09
07
f7
fc
e9
b7
9d
01
e6
09
22
f9
00
14
0a
fe
fd
07
00
f8
f0
ff
10
01
0a
02
0d
06
03
00
fd
f8
eb
cc
aa
dc
ec
fd
e9
df
ec
0a
f7
ff
f9
ff
04
01
f6
fa
0e
09
10
02
03
fc
fd
03
f4
fa
f1
c6
b3
ef
0e
f3
f2
f5
ec
f3
de
f1
f0
ee
e9
f3
01
00
01
11
21
0a
07
04
fe
01
f4
df
d9
c9
aa
cf
f6
f1
0a
fd
f3
f5
db
e9
f8
e8
ea
ed
fc
fe
fa
16
1f
0c
16
06
04
fa
e9
ea
f1
e0
cb
dc
f9
fe
fd
21
1c
21
f9
e7
f0
f6
f4
02
03
00
15
12
1d
1b
0d
09
fd
f9
de
de
e1
e6
cd
ef
03
00
02
07
2f
1b
ff
07
f1
f7
04
1c
17
1c
2b
26
22
12
09
fe
0f
08
f3
e0
ec
ec
d0
f4
04
02
fe
fe
e8
ee
05
12
19
1e
24
30
25
36
2d
1f
2b
27
28
1d
38
07
ef
03
14
24
e8
f0
ff
ff
fe
fc
f6
d0
df
db
e9
f3
0b
0c
0e
f3
17
fc
0f
14
2b
1a
15
05
f8
f9
06
03
14
fd
fc
04
fc
02
ff
18
1c
04
f2
fa
fa
1b
f9
e6
0c
16
f1
00
08
e2
f7
09
17
08
25
fc
fe
00
03
fe
03
02
00
05
ff
01
fe
00
01
fb
03
fe
fd
05
04
02
fb
fe
fd
04
03
fb
fc
fe
04
03
02
01
fc
ff
04
fa
fa
fb
f7
fa
fb
ef
d9
d3
ea
1c
13
f6
ea
fd
f3
e9
f3
fb
fd
05
ff
01
03
01
ff
01
fe
fe
f7
fb
f9
f4
f4
e4
e6
ed
e1
00
1a
12
fe
f7
d7
cb
c5
d3
03
15
16
01
03
00
00
1f
0e
e3
f7
ec
eb
04
eb
e1
ee
00
f6
f5
0d
07
05
09
16
10
01
00
f1
ff
0b
e4
04
fc
03
25
23
fd
11
f9
fb
f1
de
f1
f3
ee
eb
fc
04
0b
06
1c
29
33
0a
15
ee
e8
ff
fa
e7
02
fd
2c
f7
f3
27
16
0d
e7
ed
e0
d2
e9
f7
fc
07
13
ff
01
13
1b
1f
21
11
ff
0a
e4
e5
fd
21
f5
0b
03
13
09
fd
f7
00
08
f5
f7
f3
fb
ff
05
f6
f6
07
10
19
0a
0a
ed
ec
f7
e6
03
27
00
10
29
06
0b
09
fd
0b
0c
04
fd
01
01
fb
f9
fd
f5
11
15
0e
0d
fd
d6
ce
f6
e0
fe
09
19
0e
26
fe
01
19
0d
0f
0e
12
19
03
f0
ed
ef
0c
0d
23
1a
10
16
ec
b0
d1
1e
08
0b
0e
18
10
31
18
29
35
29
24
0f
0f
06
e3
d5
ec
ff
15
1a
1d
17
0d
18
01
b3
fd
24
1e
08
0e
01
05
13
06
20
22
23
04
f6
ea
d8
c8
cc
e9
09
25
27
30
17
00
fb
e3
be
10
1b
27
0e
03
08
f9
fe
f5
fd
0a
e2
e1
d5
db
de
d9
eb
00
0c
19
1b
13
16
f7
f1
ee
ec
01
ef
14
0e
01
00
dd
df
d7
cd
d9
c5
bb
d1
d6
fb
f1
0b
0c
11
07
08
f8
f6
f3
de
01
14
26
07
07
09
fb
0a
d3
b9
9c
9f
b5
d4
d3
d5
ee
f3
11
15
0a
0c
f8
f9
e1
f5
06
ef
ee
01
18
0d
f9
fb
05
18
db
d5
bb
ac
bf
d5
e9
ee
fc
0e
13
10
12
05
05
f6
f3
fc
09
02
f4
f8
1c
08
02
fc
03
23
db
de
d1
d9
d7
ea
f5
f9
18
14
1f
14
07
fd
f8
fa
ff
fb
12
16
16
04
f4
09
f8
fd
0e
34
fc
ec
e4
e8
04
0c
1a
14
16
23
1f
14
f9
fb
02
05
15
f7
07
ff
09
12
f5
0b
06
fe
13
25
13
02
f3
ee
08
1a
18
12
1a
1a
15
08
f3
01
03
01
0d
ea
e8
ef
01
06
0b
13
f6
fc
20
28
31
f9
06
fa
06
07
0f
08
09
02
01
02
00
07
0d
08
09
f9
ef
ef
fd
0b
27
0c
26
07
f3
00
1f
17
09
09
10
09
18
ff
eb
da
f8
f8
02
09
03
f5
00
f0
ef
f4
f9
19
35
14
20
ff
ea
f9
25
22
f1
14
20
10
01
ed
ec
ec
f2
f5
f7
fd
f9
02
08
fb
f7
fb
0e
0b
0d
21
0f
15
02
26
2e
0c
ff
13
13
0b
f2
08
fc
fb
02
fd
f5
fe
0b
0d
04
06
15
04
06
0e
f4
fa
fb
1d
15
36
f8
ff
23
12
1b
0e
fc
05
06
fa
ff
07
f6
08
14
09
1b
18
1e
14
13
f7
e5
f8
f8
fe
ff
36
e0
f4
05
0c
1b
07
06
04
09
0b
13
fd
f5
fb
04
17
0c
05
09
fe
04
fb
f1
0f
ff
fe
02
24
fb
25
08
17
fb
ff
02
02
01
fb
f4
04
fd
f9
f8
eb
ea
ec
f7
f4
02
0e
06
0b
04
00
fe
ef
e6
1a
0d
0a
fb
11
08
f8
ec
ef
f6
fb
fa
ef
d6
bb
e1
e9
c1
b4
e7
f5
ff
0b
01
01
fd
fe
f9
d9
cc
d7
02
0c
04
ee
dc
d8
ef
fe
ec
e6
f9
f6
f9
f9
d7
d6
01
fc
0d
02
02
03
fe
01
02
16
18
1d
0c
0c
12
19
11
00
03
10
31
2a
0b
ff
fe
fe
e1
e3
01
02
fc
01
fb
fc
fb
fd
fe
01
01
ff
02
fc
04
fe
fe
f4
f5
10
07
02
ff
fe
01
02
02
00
03
fe
ff
fb
fd
fc
fd
02
fd
fb
02
06
0c
fd
f7
f5
05
f0
fa
e5
02
39
2e
f6
22
19
f4
03
02
fd
01
fc
03
04
00
fc
1e
1f
09
0f
08
1e
3d
34
1c
1a
15
20
0b
16
0b
0a
00
02
ed
da
07
14
1d
01
02
02
fe
e2
19
f1
20
24
09
23
1f
27
4a
38
15
1b
1e
19
11
17
1a
21
f2
de
c4
06
1f
24
fc
01
06
ea
01
e9
0f
16
1a
26
1c
15
13
02
f9
fb
09
0e
fa
fe
00
fe
e9
f3
c0
f4
06
08
0c
fc
03
06
1a
08
11
15
02
fc
f1
03
fe
ff
00
01
ff
12
f8
07
08
0e
f9
02
04
fe
fc
17
08
fe
22
fd
0f
17
22
16
fd
e7
e1
e4
f6
f7
01
fd
01
02
f3
f6
fc
f4
f4
fd
f7
20
11
29
15
01
2f
f3
13
39
24
09
f9
fa
f9
f2
04
ef
f1
08
fa
07
f8
f7
00
f8
f4
05
f6
fa
0c
30
1d
24
0a
0c
20
3b
18
0f
0c
0a
02
fb
e3
dc
ee
09
08
09
fc
f4
fc
05
08
0a
fe
f3
19
0b
03
fa
fc
0f
11
29
15
f4
f0
ef
d2
cf
be
cd
ea
f9
00
07
f5
01
fd
09
0a
0f
f5
04
25
0b
f3
f2
fc
20
00
e1
eb
cb
c4
c1
c5
bf
c2
ea
01
fe
00
fc
f6
f8
03
07
f9
00
e9
08
16
f3
e6
fb
fe
fc
e5
d2
be
b1
b6
da
e3
e9
fe
17
26
11
fc
f5
e9
f4
0e
f8
e9
f2
ce
eb
fe
e4
e2
00
f4
f9
db
dc
dd
d7
f4
12
11
2a
28
40
2f
0e
fc
f1
f2
f7
f2
e5
eb
dc
c3
da
0f
1a
0a
15
f3
f5
02
f4
0d
0e
13
23
29
2f
27
2b
16
f8
f1
fa
fa
00
f2
e3
ed
e2
f4
0f
34
29
18
ff
fc
df
1f
10
18
20
21
1e
23
19
12
10
f4
f8
f0
f6
fc
fa
f4
f3
f4
fb
12
28
1f
38
17
ff
08
17
1e
22
22
17
07
fa
01
ec
f2
fd
f1
f6
06
07
0a
0c
0c
05
06
f5
27
52
2f
2c
1c
fc
0c
1e
2d
2b
1a
02
fc
e4
f6
f1
f0
fb
ff
02
10
0e
19
1a
20
20
23
1a
26
2d
3e
3c
32
03
09
20
2d
26
14
0b
05
f8
f0
ef
f9
ed
f6
fa
0d
15
0d
13
14
0c
19
0b
02
f3
16
06
21
e3
0b
18
28
16
11
0e
06
08
f7
f9
f6
ee
f8
f9
12
1c
12
11
04
ef
00
f8
fb
fa
0f
e3
09
f8
f5
18
19
00
0f
03
fe
fd
00
10
0f
12
19
17
1e
0c
10
0b
fd
f4
f8
ff
fd
df
f9
12
ef
fc
e4
26
22
02
06
f5
01
0a
1c
17
16
18
17
0c
03
fa
01
09
f3
fe
09
08
ff
d9
f9
02
f9
ef
00
34
17
ea
f2
f7
0a
03
0b
05
05
09
fb
f1
fd
fd
fc
fe
fb
ee
13
0f
ff
d8
07
26
05
ee
04
2b
18
f3
f2
01
06
fd
08
08
08
fe
f8
f2
03
fa
01
f5
fd
04
07
0d
05
eb
0e
14
02
02
01
30
46
1e
16
00
00
0c
10
1f
0d
fd
fd
0c
f6
ef
ea
f8
01
13
1b
1a
1f
fc
13
0d
ff
fc
01
fa
1b
19
06
f2
f3
ff
12
10
f9
f6
f1
07
01
f6
00
0b
f2
0d
29
24
14
17
0c
02
ff
04
05
1b
08
1a
fd
db
cf
b8
da
d6
e8
ee
ee
eb
f9
d8
d5
f2
0d
0b
07
13
10
05
00
09
03
01
00
02
f3
f3
e9
df
cc
d2
e2
e8
fb
ff
f8
e7
f0
f8
ed
f5
1a
0f
0c
09
fc
f7
fc
fc
02
fd
00
03
04
01
ff
ee
ed
eb
f2
e5
da
da
ef
d5
e8
02
ff
f5
f5
01
01
01
ff
00
00
fc
ff
03
00
fb
01
01
02
02
02
02
02
fd
fe
f4
f5
07
09
ff
fe
ff
04
fd
02
00
ff
fc
03
02
03
04
fc
03
01
fb
f2
f7
f1
f3
e2
e3
e2
d8
d2
d7
e9
07
03
ff
f8
fa
0c
00
f8
ff
03
03
fd
01
fd
03
18
12
01
04
02
10
27
27
13
02
d1
d2
d4
d2
dc
f1
07
11
fe
f1
17
1a
18
fc
03
fc
01
01
1e
13
28
1f
04
f2
da
ce
cf
c7
c1
de
d9
d6
d6
dc
da
dc
d8
e0
f8
0f
1a
fe
fe
fe
02
fb
0d
f1
0a
05
d8
d1
c1
bf
ce
cd
b0
b1
ae
ab
d2
d0
c2
d3
df
d6
f0
fe
0e
e6
fa
fd
00
f8
10
19
25
08
f7
1c
12
04
01
ef
e6
de
e0
ed
ec
f2
f3
e6
d5
cd
e3
e1
13
fd
05
03
f9
ff
29
16
10
19
18
18
25
14
09
07
04
01
04
ff
00
f9
ed
f2
04
df
cc
bc
d5
ee
e5
03
11
2d
2a
10
f8
26
1c
13
10
03
05
08
11
08
00
ff
01
ee
e2
f4
fb
e1
da
e6
ee
f7
d5
e4
1b
01
fd
14
0c
18
0c
15
00
0a
19
18
0f
1a
08
f3
e3
f0
ee
f6
fe
f8
04
eb
e1
f3
eb
0e
2b
f9
07
20
1d
1c
14
0d
1f
20
1b
27
23
2d
0e
f3
f3
ef
fa
ff
fb
05
02
f9
fe
09
1e
10
1f
04
05
fd
23
29
22
1b
27
1e
15
0e
13
07
fc
01
ff
fd
09
08
0b
fe
f5
f1
1a
fb
15
1d
11
25
05
ff
20
20
23
19
09
fd
02
f6
ef
ed
fc
08
10
13
14
13
0a
0d
05
e7
fb
bf
0f
0c
16
12
eb
0f
08
02
fc
fb
df
da
d6
d7
dc
00
0f
19
17
1a
10
0a
f9
0b
f2
e1
05
05
2a
e9
f8
1d
e9
fe
f7
f2
e3
d9
cf
db
da
da
ff
0d
06
12
11
12
01
09
0f
02
0b
0f
15
24
2b
eb
fd
30
f8
f1
e2
fd
f0
e2
e6
00
09
06
02
ff
0f
0c
0f
17
19
16
04
1c
23
f8
0c
38
12
ef
01
fc
e8
da
da
02
f7
ef
fa
05
16
05
01
fd
22
fc
0f
13
20
23
11
1c
0a
04
01
13
25
0f
fc
01
d2
e4
e2
f9
07
02
00
03
04
05
02
0a
15
07
16
12
25
19
0f
14
f9
0b
0f
23
0d
02
ec
10
cb
df
e8
fa
f7
ff
f8
fd
06
09
10
15
16
fb
13
1a
1d
14
05
01
f0
0c
40
23
ea
1a
ee
09
01
02
05
09
0b
f9
ec
f6
05
09
0a
12
06
08
19
1b
1c
08
ff
fe
f4
fc
2e
3c
0c
e8
19
0b
11
21
0f
ff
fe
f6
ef
ee
12
0e
04
08
06
09
03
02
09
00
fb
f7
f2
fc
0f
30
ed
fe
ed
0c
23
0b
05
f8
fd
01
e9
ee
03
02
f4
ff
f8
e8
db
da
e5
e6
ed
ec
f6
18
fd
35
00
e5
0b
07
07
08
f9
e8
e9
ff
f2
fd
fe
06
f9
fa
e9
f1
e0
d9
dc
c6
d7
d6
f2
1a
e3
f7
fd
e5
ff
00
dc
15
f5
ef
03
07
06
02
f6
06
f3
fb
f9
f4
e4
da
d5
dc
d6
eb
ec
03
e4
d7
01
04
03
e6
c0
07
05
08
14
f7
f0
ef
01
f6
f7
fa
f6
ed
ef
f7
e9
eb
f2
fa
f2
00
e9
d4
04
fc
fd
01
ed
1b
23
1a
13
ff
eb
ee
ec
f1
f1
f2
fe
ff
17
f3
fd
02
08
08
0d
1a
1b
10
02
00
02
e8
ff
16
11
0f
16
0c
f7
ef
fd
fa
ed
07
fd
15
0c
fc
05
1f
21
ed
d4
e5
11
0d
ff
00
fd
01
05
e7
e6
07
2d
26
24
13
03
04
2b
22
16
1b
1f
24
3c
2d
1a
1f
13
1a
0f
fd
ff
ff
ff
fc
ff
19
19
0d
0e
17
19
32
09
07
27
23
01
17
34
0e
28
25
32
1e
1d
ff
04
02
01
00
ff
00
fe
03
00
fe
ff
fe
fc
fe
fe
05
0a
0f
0d
fb
fd
02
03
00
02
fd
02
01
fd
fe
02
fe
fc
fe
02
04
0a
09
11
0c
fd
fd
fb
ff
0e
01
2c
32
2c
22
2e
24
0e
0e
07
fc
fd
ff
04
05
03
04
11
fa
fb
06
16
09
1f
32
22
22
15
25
34
33
1a
1c
11
27
2c
1b
32
22
19
fc
05
fc
04
27
2d
1f
04
02
00
16
3a
29
0f
24
29
08
04
15
09
f3
1e
21
18
03
0d
3d
2a
18
03
02
04
26
38
0c
0c
0f
08
1d
1d
20
2d
08
02
ee
f0
e5
d5
f2
ee
ef
f1
f1
03
02
11
29
17
01
ff
3a
25
15
2a
24
1f
23
21
1c
0a
06
0d
fa
fd
fb
f3
02
03
fe
09
0e
13
27
11
0d
0a
01
23
f1
11
00
06
1f
20
20
19
21
21
1a
1d
1f
27
28
25
2e
16
1b
11
06
06
08
13
fc
08
04
30
1d
0b
06
f7
1d
13
0f
07
19
1c
30
30
3e
31
2d
1e
16
11
16
06
07
eb
d7
e6
fd
06
e5
11
07
fa
0d
f8
06
fb
08
01
0e
16
20
2b
2c
22
1f
11
f6
fd
f4
e3
fd
eb
c0
dc
0a
f6
09
0f
fc
08
28
e9
03
f1
f7
0a
10
ff
0b
16
17
07
f8
fb
e6
e2
e3
d3
f3
f9
e0
08
1a
22
08
0b
01
11
e3
ef
fd
e7
f9
ef
ea
de
dc
f8
f6
e2
fe
e8
e0
dc
e7
e0
e2
f0
eb
0f
08
22
13
f9
0b
04
e0
e5
f8
e8
e2
d0
cc
dc
d3
eb
f0
e4
e5
f1
e6
e7
f8
ec
f2
fa
03
eb
d1
15
03
05
06
ed
e1
d5
e2
e2
e3
dd
e1
d2
d2
e3
10
0b
f6
f0
ff
f4
ef
ea
ea
e2
e6
f3
ed
09
0a
fd
0a
f5
cb
cf
e3
f9
f0
ee
f1
e7
e6
15
29
06
fa
ff
fc
f5
f3
f7
f0
e7
e1
e6
f0
05
f1
fe
09
fd
db
ca
03
fe
f7
fa
07
f2
ff
20
19
13
01
fc
0e
f6
06
0e
fa
f5
f4
de
19
06
f8
fd
0b
dd
ef
f4
18
02
fe
fe
09
11
07
12
0d
07
07
fe
06
f2
00
ff
ea
eb
04
f5
fd
03
03
0d
1a
f3
f8
04
0e
00
f0
ff
17
22
15
17
05
fa
0c
03
03
f7
fd
08
f4
e7
05
06
07
17
02
16
fb
07
04
01
02
ee
fd
00
16
14
17
0f
03
08
00
fc
f2
fd
f3
06
fb
e9
fc
35
15
12
1b
13
fa
fe
09
fb
fa
f6
fd
03
19
0f
04
fc
00
0b
09
0b
01
02
02
03
0d
00
03
3b
32
26
02
03
ed
e1
f6
f3
02
00
f9
0e
10
0c
13
02
07
13
11
10
0d
15
06
fa
0a
10
2c
53
28
19
fc
e9
e7
f9
fb
f9
04
11
09
00
04
12
0a
12
15
18
17
08
11
1a
0c
0c
0c
1c
57
58
27
04
0d
0c
f9
06
fe
fa
04
0e
fb
f7
11
03
13
0c
0e
03
17
02
1b
16
07
10
fd
20
57
3b
ea
02
0a
09
09
07
16
1a
04
03
08
07
09
fe
ff
f7
03
07
01
01
ff
07
16
f1
01
20
34
18
e0
fe
ff
fd
22
f4
0f
10
0c
0a
ef
f5
fd
0b
01
02
fe
09
f4
f2
ef
fd
01
f6
12
22
33
f6
f1
03
fd
00
22
fb
36
16
09
06
fe
ff
fc
fe
07
09
02
0d
ed
ff
fe
00
01
fe
04
fe
27
0e
0f
02
ff
fe
f5
f7
16
16
0d
11
39
38
12
1a
33
14
16
10
14
09
0e
0f
08
17
14
10
12
0c
0d
fd
04
04
ff
0f
e1
db
f7
32
4a
52
4f
2f
18
3b
4c
2a
20
1f
26
28
17
03
0d
20
00
0d
01
ff
fc
ff
03
00
0d
13
11
0e
0c
0f
2f
22
26
38
42
1f
1f
20
10
11
04
f8
e1
05
ff
02
fc
00
02
04
fc
fe
ff
fc
fc
fc
00
00
fe
fd
07
09
f3
fd
fd
fd
fd
fc
04
02
02
01
ff
02
fc
fe
fe
fe
01
fe
0a
0f
0e
12
1c
25
29
25
2d
40
f6
e8
fa
03
2d
32
2b
17
17
0b
01
04
fd
fc
fd
fe
0e
f2
00
1e
1c
2b
31
09
14
44
25
fd
26
16
0e
20
14
07
25
2d
29
1b
f5
e9
01
02
fd
fd
e0
f2
10
3f
3d
28
21
1c
1f
37
24
20
1a
1a
05
02
0c
11
0c
fb
0e
1d
15
e5
12
fc
03
01
e3
ed
28
30
2f
2d
1f
20
2e
06
13
04
06
fb
03
fe
04
0c
13
19
20
1d
0e
f9
ee
16
04
fd
f8
ec
30
fc
0e
22
1d
1a
28
03
08
f4
03
fe
0c
11
09
19
1b
04
07
26
2d
1b
10
1d
fd
10
10
ea
08
13
09
14
15
2d
12
04
05
fb
f4
fb
01
ff
f4
08
09
fb
11
19
30
21
07
1a
fe
05
f3
ea
13
2e
04
01
0f
0c
04
0a
f5
e3
ee
f2
fd
07
07
03
00
f8
fc
f7
1c
0d
0f
1a
09
e3
16
06
0f
10
f3
ed
fe
05
f3
f7
ea
e5
df
e5
f9
02
fe
05
04
01
f5
d5
d2
e6
e5
df
fb
de
1a
fc
ff
ff
eb
f4
05
f8
d8
e7
ea
d4
d6
ef
06
fc
04
06
09
0a
e5
ca
db
d4
c8
f5
f9
e6
f0
1c
fa
f6
ea
fd
05
f3
e7
de
dd
d9
d6
f1
02
0c
fe
fa
f7
f0
d4
d8
01
08
d3
f6
f6
ed
e0
06
ed
ec
fa
f7
fc
00
fc
ed
ed
e1
ec
fe
12
06
f8
fb
eb
f2
dd
dc
eb
ed
cd
e3
fa
f3
f5
f8
ec
f8
02
fe
fa
00
0a
02
03
f5
f7
0a
19
02
f9
f1
f2
f9
f2
fa
03
e3
c0
d9
e8
0c
e5
ef
e7
f9
06
0a
0b
10
0e
f5
f5
f6
f4
0b
0e
05
05
02
f5
09
0f
1f
10
da
cd
f2
0c
0b
d0
d1
fe
0b
16
13
12
11
03
fa
01
00
08
14
10
02
03
00
10
16
1c
08
f8
eb
cb
f0
05
11
04
0a
0c
12
14
17
18
11
0b
ff
0d
09
0d
07
07
02
fd
17
1b
21
22
14
f7
0a
ff
ef
f6
0e
07
1d
fd
11
1c
0e
0d
0a
0e
15
0f
0c
0a
00
f6
06
1d
27
27
1d
1e
10
ff
06
e6
db
02
03
28
0e
eb
01
04
14
1a
0e
08
13
10
ff
f7
f1
fe
08
1c
24
10
1a
0a
08
e0
f6
e7
e2
eb
06
13
1a
f7
f5
fb
02
01
fe
fa
08
1e
0b
fa
fa
0f
03
0e
0c
0e
0f
f6
05
fd
14
e7
d9
fd
ee
06
26
ef
01
f9
f5
fa
02
13
23
0d
fc
06
0a
06
f9
02
fe
03
06
ea
ef
01
13
08
e0
03
e8
1e
25
ec
e0
e5
fe
f4
0f
0d
09
00
fc
17
17
0f
fc
08
f9
12
fa
e2
e8
f6
18
06
f1
e7
fb
22
03
d1
bd
c9
ee
fa
06
02
0e
0a
12
23
24
1b
16
0a
14
0b
ec
04
fe
f2
05
f1
02
e6
02
16
f9
de
bf
b9
d7
e7
e8
03
11
14
19
19
26
2d
11
04
1c
05
10
04
ed
de
fd
11
ff
fc
04
0d
31
24
19
0f
f3
f4
f2
ff
fe
fd
0b
16
0f
0b
01
1b
2a
23
20
f4
e6
e4
0d
06
fd
fd
04
f4
30
26
22
35
1d
0f
11
fe
03
08
09
1e
10
1a
11
0f
fb
ff
03
03
e8
ea
11
05
fd
fe
fd
19
18
0d
15
2c
22
12
11
1b
0d
01
08
e7
03
f1
fb
0c
ec
f3
0a
17
04
de
04
0a
ff
fc
02
ff
ff
17
08
01
e4
fc
f6
fc
fb
00
dc
d2
d2
c7
ce
c7
b9
d9
f5
d7
f9
e7
04
04
00
00
ff
03
04
03
04
1b
17
0b
04
d0
f2
02
d8
d2
fd
da
d6
03
09
14
f8
ee
ed
03
02
fc
fe
04
fc
fe
fe
00
fe
fd
04
01
04
02
fe
07
04
0b
0b
ff
ff
03
04
fc
fc
fc
00
ff
02
fe
04
fd
00
fc
ff
07
0e
09
0c
13
0c
0a
12
0f
0d
0d
35
27
2d
15
10
1c
0b
0e
0a
fe
00
ff
03
01
fd
05
29
23
f3
f5
01
02
ff
28
27
30
1c
0c
0c
fb
cc
da
f6
26
26
23
1c
11
01
ff
03
01
03
20
20
ed
07
f2
ff
18
0a
09
17
18
1a
17
19
18
ef
cb
cc
d2
d6
f2
03
19
0b
f1
01
fc
0a
2a
0f
07
f4
f6
f3
10
02
f9
11
15
29
21
1d
09
01
f2
f0
de
d0
e4
ee
d9
f3
0f
0d
01
01
36
e2
f8
08
fb
ec
fa
00
fb
fa
ff
20
1f
1c
0a
04
09
05
f2
e3
e8
e2
ef
e9
ed
ef
00
18
f7
25
07
ee
f2
e8
f2
f4
00
fd
fa
0d
18
13
1a
1c
27
08
07
04
f1
e3
cb
d6
ea
fb
03
3b
17
18
12
e7
ec
f5
f2
f9
f6
ec
f4
fe
ff
19
20
28
27
18
03
00
fc
f5
d4
d2
fc
0a
28
17
fd
00
fa
e7
01
ff
01
eb
ec
e0
d9
e0
01
2a
30
31
29
24
10
0b
0c
e4
c8
b7
ee
f4
14
29
f7
16
05
f8
00
f7
ed
f3
f3
d8
dc
ee
0d
29
29
28
28
30
2a
0c
0c
fd
c9
d0
cf
12
0e
1a
0a
10
f4
f9
07
f5
ef
ec
e8
e8
d8
f9
11
0e
14
1b
1c
1c
29
0f
23
0d
bb
dc
dc
1f
17
29
27
0e
fc
e9
ee
fe
fc
f4
02
0b
f6
00
04
f3
ef
04
11
18
32
20
26
0a
d2
cd
e5
03
0e
0b
17
fe
16
f3
f7
ed
fd
05
11
0a
f7
f0
08
fb
fc
07
10
0c
0f
11
22
19
ec
bd
c5
0e
0d
04
1d
fc
18
01
0a
f8
08
01
11
02
f0
f1
fc
fc
02
0b
08
04
fe
0f
05
00
dd
b7
d4
fd
ed
08
27
ef
ee
09
0c
06
02
ff
fb
fc
f4
f1
f7
0d
03
08
0f
0a
02
0b
00
ff
eb
d1
05
01
ed
0d
06
c3
f1
0e
04
07
fd
f7
f3
f8
ed
ee
ec
02
fb
02
fb
03
04
01
0b
03
fc
e2
f9
12
0d
16
2e
ce
05
07
03
02
05
10
04
fc
ee
ed
e5
e5
00
fe
fb
f5
f1
f4
ff
f4
ec
e4
00
1d
04
10
05
e7
08
f1
eb
ef
fa
0b
03
f2
fa
f3
e7
eb
ff
02
ff
04
e9
ed
05
f5
f5
06
11
29
25
21
1a
e9
f0
e5
e5
ef
00
05
0b
01
ec
f2
e3
eb
f9
0b
08
fa
f5
f6
11
fe
f6
0b
22
28
02
26
f0
e7
f8
f8
e9
fd
fe
0a
0c
f9
02
fe
f1
f2
fb
ff
ff
07
fb
fa
05
02
12
09
08
22
00
26
f0
f2
fe
00
fc
07
01
00
14
01
01
07
0b
f3
f4
f5
f8
01
fc
f6
f6
01
1f
0d
19
06
16
00
2a
1f
fa
f3
07
02
fe
fc
0d
02
15
15
0b
f5
01
f3
fa
f2
ed
ed
f3
02
1a
05
23
08
0f
1d
26
04
f9
1a
14
00
11
0e
0c
06
10
12
0f
05
f8
ef
e7
ee
e7
ea
f4
05
00
fa
fc
04
00
fe
23
dc
dd
fc
05
1c
0e
0f
08
14
0c
18
12
08
fa
ff
f5
dd
cd
e2
00
f9
08
f2
ff
fc
ff
fd
11
0f
22
1b
08
0a
08
07
07
fe
0a
05
01
0b
f7
02
e1
e0
d4
e4
f5
f6
05
08
06
02
00
fe
fc
02
0b
19
09
09
22
13
fd
0a
12
07
12
ed
ee
db
e2
09
18
15
00
f6
fa
ff
01
01
04
fe
03
0c
e3
f6
10
4f
4c
41
34
17
0e
2c
2f
17
1c
17
2b
35
34
2a
2d
03
0a
11
ff
fe
04
fc
ff
fd
14
1c
1a
22
20
1e
35
23
29
23
4e
22
2f
30
23
40
3b
1e
18
11
03
01
fe
05
02
fc
01
fd
04
fd
04
02
ff
04
fe
00
00
ff
e8
eb
01
03
fe
01
00
00
00
fc
fd
03
04
ff
04
fd
04
03
fd
f3
f0
f2
ee
eb
e9
f3
f5
fb
05
fd
0e
02
e2
e4
e8
eb
f1
f8
00
03
fd
02
ff
01
f0
22
1e
ea
df
d9
bb
b3
c6
c8
c0
c9
c6
bc
f0
f3
ec
ed
d3
dd
eb
ec
de
e9
04
01
00
04
eb
1d
03
01
e0
ff
02
ea
07
04
06
e6
f2
f5
04
0f
02
0d
27
fe
eb
f5
fe
0e
0d
02
ff
08
06
27
f7
e9
ed
00
01
05
fc
0e
09
f2
f0
02
f9
03
06
f8
f9
f8
f8
fd
1b
1a
1e
fc
ff
fd
d6
09
dc
f3
fd
09
07
07
0d
22
04
f8
f1
ec
e4
ed
f7
f4
f5
ea
f5
f5
01
03
15
fa
02
12
1b
f1
ee
02
02
05
10
17
1f
11
07
12
07
00
04
fd
00
ff
08
15
0f
0b
0c
04
0e
ff
fd
09
10
f9
ea
07
0b
05
12
20
22
16
1d
19
16
1a
11
15
10
12
04
02
0b
0c
04
fd
03
0f
1b
e7
fe
02
e1
08
04
0e
19
21
19
19
14
0a
1c
25
32
11
1f
00
15
17
16
13
28
05
f5
1d
06
07
13
f7
e7
f7
16
13
1b
1b
18
14
09
03
0a
12
27
21
19
03
12
0f
09
18
28
1f
07
03
ff
ea
19
fb
ed
f7
12
23
20
1b
0e
fd
ff
fd
fa
09
28
1d
12
01
0e
08
16
18
1f
19
18
f8
f6
0c
0c
02
fa
04
10
14
1b
0c
06
ff
f2
08
ff
14
1b
23
0a
fd
09
f9
08
05
11
04
34
02
00
e1
f5
04
0d
0b
1d
07
10
06
0f
f7
f2
06
ff
0a
f9
f6
08
09
07
f3
fd
fe
df
e3
17
d8
f7
09
f5
01
25
10
16
28
10
0d
02
f2
f3
ec
f3
ed
e4
f6
0b
0d
07
01
ff
f8
ea
e6
e5
da
02
1a
05
eb
1c
0d
1c
23
1b
10
f3
e6
ee
ea
e8
ec
db
fe
17
1a
16
16
09
1d
1f
e6
e0
e8
00
11
ee
d4
27
19
1d
26
1e
0c
fc
ed
f7
e3
dd
db
ca
ff
1c
1e
1a
11
0c
2a
23
df
f7
d7
ed
10
01
e7
21
14
02
1c
22
10
06
fd
06
f4
db
d0
cc
00
1d
22
25
03
0a
18
19
d5
e6
ed
ff
17
f2
03
28
14
0a
12
07
06
0e
05
0a
ef
dc
d7
ef
21
28
1f
15
fc
06
0b
0a
d2
f0
0e
0b
0d
0a
f7
0f
0a
0a
ff
01
f8
08
1b
05
ea
df
ed
ff
19
13
1d
18
08
04
f1
ee
ab
00
d3
f9
28
15
0e
08
0a
f8
fb
00
ef
f7
07
0e
f0
eb
e9
ff
0b
1a
1c
18
0a
f9
f4
04
c0
d0
e5
01
13
fa
fe
0a
04
f0
e3
f6
f6
f5
fe
fe
03
fa
fa
04
12
06
1b
0e
f7
ff
fc
fa
09
d6
05
f6
ef
f6
00
ed
ef
ef
ec
e4
dd
e5
ef
f5
ef
f5
0e
1a
0b
03
0d
0d
02
ff
fc
f6
08
14
06
f9
03
f2
1b
de
d2
e3
e6
d7
d5
dc
ea
f3
fa
17
22
1e
1f
14
0b
09
02
14
17
0b
0f
20
08
fe
fe
f9
2c
fa
fe
08
f6
f1
e7
ff
01
fe
0e
23
2b
28
28
17
f9
0c
fe
04
1a
24
12
0e
01
fe
fd
00
2d
2e
18
13
17
13
14
23
1b
25
36
2a
29
2d
1c
0d
06
2a
05
1d
21
f7
cc
f3
fc
fd
03
25
23
00
0a
00
16
19
2d
18
23
1c
11
0d
0c
22
18
18
46
2d
2e
34
28
35
f4
f1
03
fd
fd
04
0c
ed
0d
0a
ec
f5
0c
1b
30
37
43
2c
0e
29
2f
22
3d
47
4d
47
ff
1c
03
fe
00
fc
fc
03
ff
ef
e6
dd
e2
db
dd
00
09
10
d7
0b
d2
f6
fe
f9
d8
df
16
2a
12
03
01
fd
03
02
01
00
fe
fb
fc
04
02
fd
02
04
01
fe
ff
00
01
fc
fc
01
fe
02
02
01
04
fd
04
fe
04
fc
02
04
04
00
06
02
03
fe
04
ff
07
0b
04
f8
02
05
06
06
01
05
00
04
04
00
02
02
04
01
ff
03
0a
05
fb
01
02
ea
e4
e8
fa
e9
db
d2
b5
d0
ee
06
f0
da
ed
f7
0d
0e
01
fc
04
fe
fc
ea
09
18
f7
ee
e5
06
17
0e
0e
0f
25
0f
f3
f4
fe
01
fd
12
01
fd
11
30
2d
1a
00
03
f7
d9
1a
f0
ef
f1
f5
ec
15
04
15
0a
0a
01
14
fd
0f
16
07
03
fe
05
fa
e4
f1
1b
07
fd
ff
d7
16
d4
d2
f1
f4
06
05
18
25
19
26
18
1a
12
28
28
17
0d
07
07
f2
eb
16
f5
ea
00
04
1e
08
f4
03
0a
0e
10
0b
24
23
20
3a
4a
48
3c
2f
30
1a
22
18
05
f0
e2
e5
e5
f5
02
e4
27
10
f5
ff
15
16
14
18
26
25
27
38
48
4a
35
17
1e
0f
0e
10
fa
ec
e0
c4
f0
0c
0c
0b
fc
0a
f1
f7
18
0d
24
18
18
0c
11
18
2c
2d
29
06
08
04
0c
03
fb
09
f8
e2
f5
12
0b
03
fd
ec
e6
01
0b
07
13
0a
0c
fa
02
01
f7
ec
fb
01
05
06
03
f4
fb
12
14
11
f7
f6
0b
02
0c
f2
e8
0e
13
09
0b
f9
f7
f2
eb
eb
e8
db
f7
fc
0e
08
fd
07
0c
21
27
03
07
e8
f9
02
ff
fd
f3
fa
0f
06
03
ef
f4
fb
e4
fa
e2
dc
eb
02
09
03
0a
12
15
12
23
ff
2e
f7
f5
09
09
f8
f4
f7
0f
fa
fb
fc
fa
f4
df
dd
da
ec
ea
fb
02
19
15
16
07
09
0c
fa
fc
e6
f3
0a
05
09
fb
fb
f9
fe
fb
09
0b
f7
ef
db
e0
e4
de
e4
f1
13
0f
0f
ff
fd
ef
e1
ec
fd
0d
f2
03
04
04
fc
f5
fa
f8
01
fe
fa
f7
fd
f5
f6
dc
df
f3
00
14
15
03
01
ed
e1
06
fd
0c
fa
d7
e7
0f
04
e7
f7
fa
fa
fa
f4
fe
fb
ef
f0
e5
e6
ed
ef
09
12
03
fe
02
e9
f7
10
e9
fa
dc
eb
fe
09
f0
f6
ef
ee
fc
06
09
f0
e9
ea
ef
e9
de
e3
fb
01
ff
ec
e5
ee
01
0e
02
e0
da
00
04
fe
fa
e8
dd
ea
f7
fe
00
e9
df
f6
fc
f8
eb
e5
f6
eb
f0
e5
ee
0c
f7
fe
17
da
d8
cf
f9
eb
ea
eb
ec
eb
f8
ed
e5
c6
d4
03
04
02
f7
ef
e6
e5
f5
ec
f5
fe
fc
e9
ef
0f
09
e4
f4
ec
f7
fc
f6
ed
fd
ee
02
ea
ec
fd
03
03
fc
ff
f7
e7
fe
f5
fd
ec
05
f1
00
02
0e
0b
15
17
0c
0d
0f
fd
ff
01
14
11
05
14
0d
0c
ff
0b
fd
f8
f6
fe
f4
e9
fb
fa
e8
03
0b
21
15
19
22
27
0f
0c
0c
0a
20
1a
19
14
13
05
09
09
01
fc
01
15
03
f1
2d
0a
e7
e7
00
17
fd
1e
30
29
2b
21
11
1c
21
22
23
17
12
11
0d
fd
07
ee
fe
14
13
f2
07
08
00
fc
d4
12
f8
29
37
2e
18
20
1f
24
1c
1b
25
1a
1b
1a
fc
01
13
00
19
19
28
05
da
03
02
03
dd
0c
e0
0f
08
06
06
15
0d
0b
28
19
14
1e
18
18
20
0b
22
10
f1
f8
21
01
0c
fc
02
fd
ff
21
d9
e0
f2
fc
01
08
03
12
04
06
0e
19
0d
f6
e7
10
10
00
0b
11
0c
0c
0a
04
ff
fd
ff
09
df
e6
ef
f1
14
20
2d
36
1c
2d
33
05
14
fe
1d
37
18
06
1d
0b
02
fa
00
04
01
01
fc
fc
fc
fc
f8
04
02
02
ff
fd
02
f1
29
01
f0
fd
09
06
f1
fb
fe
f9
01
fe
01
00
