cd
e5
0a
26
cd
24
03
d0
25
11
27
0e
fd
cf
cb
c8
03
da
f2
c7
1a
f9
4b
02
b4
28
14
05
2b
bf
04
35
0d
16
1e
33
2a
1e
bb
ef
f8
1c
bd
ca
1c
db
00
19
be
1a
03
f4
c0
f4
fb
45
e7
eb
d7
fb
2f
0d
d8
f5
23
ed
a9
81
0c
fb
0a
08
f5
2d
20
bb
fb
2a
24
eb
20
22
d9
3c
e9
03
cf
cc
bb
eb
f2
3f
0a
1c
d5
d1
16
28
c8
a3
24
12
fa
cc
2c
bf
1f
00
ec
d9
d1
f3
de
df
23
37
d3
f3
3c
d9
e1
31
e7
b4
fc
24
de
28
e1
0b
19
eb
ce
21
bb
18
cf
ca
2d
fa
ea
ed
20
0c
b5
e7
31
f6
21
c7
fd
14
0a
cf
04
f4
bf
26
24
a6
