11
09
17
20
fa
ee
1e
05
11
d2
07
07
e8
1b
18
dd
fc
e9
fd
2d
ff
18
f5
0b
fd
f6
f1
a3
18
d5
fc
04
e0
42
23
03
ef
11
eb
31
0c
1d
c4
0d
16
f6
f7
f0
ba
27
17
f8
2c
d4
19
22
0a
35
2c
11
3f
cc
e4
f8
30
fb
05
fd
0e
26
e6
11
e0
c0
f4
f9
c6
f6
fc
17
19
dd
25
e6
06
da
d5
01
21
d7
36
40
d9
5a
16
5c
d6
ef
0e
f3
0f
e5
0e
da
1b
16
18
18
2d
30
04
4f
fb
d3
ea
0e
e5
ed
19
30
db
f7
1c
f2
93
1e
1d
f1
12
1d
10
fa
02
fc
f8
24
ca
12
4d
15
23
0e
34
2a
4f
d2
f4
b5
1d
e2
2c
c0
f1
08
1a
1b
f4
fc
c1
dd
eb
1c
19
c3
06
08
2a
0f
f6
f9
f0
22
40
ed
1b
16
03
03
29
37
28
a1
24
14
05
19
e2
0b
eb
f0
e2
1b
11
ef
e5
30
10
04
31
e8
1b
63
46
11
d9
22
0e
fa
32
c9
fc
ec
e9
45
cb
0e
36
e0
02
25
f5
26
d4
e4
12
21
b7
16
14
18
12
12
2e
e1
e6
01
b0
c1
0c
17
04
07
26
c5
18
41
d1
2e
49
38
0c
ee
01
2d
0e
d8
c6
e0
17
9e
0a
ed
e7
ee
8b
1d
3c
09
16
e7
1d
1e
11
06
18
15
39
ad
29
dc
f2
1f
43
f7
24
2d
14
1d
f2
e5
14
1d
14
fc
66
dd
2a
e2
24
1c
48
16
dd
ca
49
d4
26
01
e8
ce
14
dc
28
29
03
f9
fc
f3
0d
01
07
12
2c
a4
ed
18
be
e4
ea
29
f8
1c
ca
1c
35
15
20
48
17
2d
fa
ff
21
fd
e0
ba
c3
eb
04
05
26
dd
c0
31
ea
46
02
16
d0
1c
f3
27
c0
f8
0c
34
dc
1e
88
37
0f
d6
e1
2d
2a
19
c5
03
a6
20
fc
fb
23
37
e7
14
b6
25
0b
df
4a
26
fd
13
14
f9
40
e9
eb
0c
04
cc
20
ef
f2
05
f8
05
3c
53
f9
24
e6
2d
07
06
3a
07
20
22
f1
31
f8
08
4f
fb
18
25
dd
4c
bd
c8
db
0d
0d
ce
de
7f
f2
0a
f1
f7
1e
1b
09
e2
44
dc
4a
29
0a
fa
09
2f
d3
1e
0f
c7
1a
2b
b8
f2
2f
26
4b
ed
1a
fb
fd
1c
1d
e5
eb
b5
ce
dc
de
e8
e8
ee
0f
ea
0a
00
ec
fb
1d
1c
ef
34
e5
1d
35
c1
1c
2c
34
ab
12
2a
ed
e8
e8
2b
4d
d3
24
21
f9
12
d8
ec
